{
  "version": "1.0",
  "truncation": null,
  "padding": null,
  "added_tokens": [
    {
      "id": 0,
      "content": "<pad>",
      "single_word": false,
      "lstrip": false,
      "rstrip": false,
      "normalized": false,
      "special": true
    },
    {
      "id": 1,
      "content": "<unk>",
      "single_word": false,
      "lstrip": false,
      "rstrip": false,
      "normalized": false,
      "special": true
    },
    {
      "id": 2,
      "content": "<s>",
      "single_word": false,
      "lstrip": false,
      "rstrip": false,
      "normalized": false,
      "special": true
    },
    {
      "id": 3,
      "content": "</s>",
      "single_word": false,
      "lstrip": false,
      "rstrip": false,
      "normalized": false,
      "special": true
    },
    {
      "id": 4,
      "content": "<mask>",
      "single_word": false,
      "lstrip": false,
      "rstrip": false,
      "normalized": false,
      "special": true
    }
  ],
  "normalizer": {
    "type": "Sequence",
    "normalizers": [
      {
        "type": "BertNormalizer",
        "clean_text": true,
        "handle_chinese_chars": true,
        "strip_accents": null,
        "lowercase": false
      },
      {
        "type": "Lowercase"
      }
    ]
  },
  "pre_tokenizer": {
    "type": "BertPreTokenizer"
  },
  "post_processor": null,
  "decoder": {
    "type": "BPEDecoder",
    "suffix": ""
  },
  "model": {
    "type": "BPE",
    "dropout": null,
    "unk_token": "<unk>",
    "continuing_subword_prefix": null,
    "end_of_word_suffix": "",
    "fuse_unk": false,
    "byte_fallback": false,
    "vocab": {
      "<pad>": 0,
      "<unk>": 1,
      "<s>": 2,
      "</s>": 3,
      "<mask>": 4,
      "!": 5,
      "\"": 6,
      "#": 7,
      "$": 8,
      "%": 9,
      "&": 10,
      "'": 11,
      "(": 12,
      ")": 13,
      "*": 14,
      "+": 15,
      ",": 16,
      "-": 17,
      ".": 18,
      "/": 19,
      "0": 20,
      "1": 21,
      "2": 22,
      "3": 23,
      "4": 24,
      "5": 25,
      "6": 26,
      "7": 27,
      "8": 28,
      "9": 29,
      ":": 30,
      ";": 31,
      "<": 32,
      "=": 33,
      ">": 34,
      "?": 35,
      "@": 36,
      "[": 37,
      "\\": 38,
      "]": 39,
      "^": 40,
      "_": 41,
      "`": 42,
      "a": 43,
      "b": 44,
      "c": 45,
      "d": 46,
      "e": 47,
      "f": 48,
      "g": 49,
      "h": 50,
      "i": 51,
      "j": 52,
      "k": 53,
      "l": 54,
      "m": 55,
      "n": 56,
      "o": 57,
      "p": 58,
      "q": 59,
      "r": 60,
      "s": 61,
      "t": 62,
      "u": 63,
      "v": 64,
      "w": 65,
      "x": 66,
      "y": 67,
      "z": 68,
      "|": 69,
      "}": 70,
      "~": 71,
      "¡": 72,
      "¢": 73,
      "£": 74,
      "¥": 75,
      "§": 76,
      "°": 77,
      "±": 78,
      "²": 79,
      "³": 80,
      "´": 81,
      "µ": 82,
      "·": 83,
      "º": 84,
      "½": 85,
      "¿": 86,
      "×": 87,
      "ß": 88,
      "à": 89,
      "á": 90,
      "â": 91,
      "ã": 92,
      "ä": 93,
      "å": 94,
      "æ": 95,
      "ç": 96,
      "è": 97,
      "é": 98,
      "ê": 99,
      "ë": 100,
      "ì": 101,
      "í": 102,
      "î": 103,
      "ï": 104,
      "ð": 105,
      "ñ": 106,
      "ò": 107,
      "ó": 108,
      "ô": 109,
      "ö": 110,
      "ø": 111,
      "ù": 112,
      "ú": 113,
      "û": 114,
      "ü": 115,
      "ý": 116,
      "þ": 117,
      "ā": 118,
      "ă": 119,
      "ą": 120,
      "ć": 121,
      "č": 122,
      "đ": 123,
      "ē": 124,
      "ĕ": 125,
      "ė": 126,
      "ę": 127,
      "ğ": 128,
      "ħ": 129,
      "ī": 130,
      "ı": 131,
      "ľ": 132,
      "ł": 133,
      "ń": 134,
      "ō": 135,
      "œ": 136,
      "ř": 137,
      "ś": 138,
      "ş": 139,
      "š": 140,
      "ţ": 141,
      "ũ": 142,
      "ū": 143,
      "ů": 144,
      "ų": 145,
      "ź": 146,
      "ż": 147,
      "ž": 148,
      "ơ": 149,
      "ư": 150,
      "ǎ": 151,
      "ǔ": 152,
      "ș": 153,
      "ț": 154,
      "ȯ": 155,
      "ɐ": 156,
      "ɑ": 157,
      "ɒ": 158,
      "ɔ": 159,
      "ə": 160,
      "ɛ": 161,
      "ɜ": 162,
      "ɡ": 163,
      "ɢ": 164,
      "ɪ": 165,
      "ɫ": 166,
      "ɳ": 167,
      "ɽ": 168,
      "ɾ": 169,
      "ʁ": 170,
      "ʃ": 171,
      "ʊ": 172,
      "ʋ": 173,
      "ʒ": 174,
      "ʔ": 175,
      "ʕ": 176,
      "ʲ": 177,
      "ʻ": 178,
      "ʼ": 179,
      "ʾ": 180,
      "ʿ": 181,
      "ˈ": 182,
      "ˌ": 183,
      "ː": 184,
      "́": 185,
      "̃": 186,
      "̇": 187,
      "̍": 188,
      "̥": 189,
      "̯": 190,
      "͍": 191,
      "ά": 192,
      "έ": 193,
      "ή": 194,
      "ί": 195,
      "α": 196,
      "β": 197,
      "γ": 198,
      "δ": 199,
      "ε": 200,
      "η": 201,
      "θ": 202,
      "ι": 203,
      "κ": 204,
      "λ": 205,
      "μ": 206,
      "ν": 207,
      "ξ": 208,
      "ο": 209,
      "π": 210,
      "ρ": 211,
      "ς": 212,
      "σ": 213,
      "τ": 214,
      "υ": 215,
      "φ": 216,
      "χ": 217,
      "ψ": 218,
      "ω": 219,
      "ό": 220,
      "ύ": 221,
      "ώ": 222,
      "а": 223,
      "б": 224,
      "в": 225,
      "г": 226,
      "д": 227,
      "е": 228,
      "ж": 229,
      "з": 230,
      "и": 231,
      "й": 232,
      "к": 233,
      "л": 234,
      "м": 235,
      "н": 236,
      "о": 237,
      "п": 238,
      "р": 239,
      "с": 240,
      "т": 241,
      "у": 242,
      "х": 243,
      "ц": 244,
      "ш": 245,
      "ъ": 246,
      "ы": 247,
      "ь": 248,
      "ю": 249,
      "я": 250,
      "є": 251,
      "ֵ": 252,
      "ֶ": 253,
      "ָ": 254,
      "ֹ": 255,
      "ּ": 256,
      "א": 257,
      "ב": 258,
      "ג": 259,
      "ה": 260,
      "ו": 261,
      "ז": 262,
      "ח": 263,
      "י": 264,
      "ל": 265,
      "ם": 266,
      "מ": 267,
      "ן": 268,
      "נ": 269,
      "ס": 270,
      "ף": 271,
      "פ": 272,
      "צ": 273,
      "ר": 274,
      "ש": 275,
      "ת": 276,
      "ء": 277,
      "أ": 278,
      "إ": 279,
      "ا": 280,
      "ب": 281,
      "ة": 282,
      "ت": 283,
      "ث": 284,
      "ج": 285,
      "ح": 286,
      "خ": 287,
      "د": 288,
      "ذ": 289,
      "ر": 290,
      "س": 291,
      "ش": 292,
      "ص": 293,
      "ع": 294,
      "ف": 295,
      "ق": 296,
      "ك": 297,
      "ل": 298,
      "م": 299,
      "ن": 300,
      "ه": 301,
      "و": 302,
      "ي": 303,
      "ܐ": 304,
      "ܕ": 305,
      "ܗ": 306,
      "ܝ": 307,
      "ܠ": 308,
      "ܢ": 309,
      "ܬ": 310,
      "ܲ": 311,
      "ܵ": 312,
      "ं": 313,
      "अ": 314,
      "ई": 315,
      "क": 316,
      "ग": 317,
      "ण": 318,
      "त": 319,
      "द": 320,
      "न": 321,
      "प": 322,
      "ब": 323,
      "म": 324,
      "य": 325,
      "र": 326,
      "ल": 327,
      "व": 328,
      "स": 329,
      "ह": 330,
      "ा": 331,
      "ि": 332,
      "ु": 333,
      "ू": 334,
      "े": 335,
      "ै": 336,
      "्": 337,
      "আ": 338,
      "ল": 339,
      "হ": 340,
      "া": 341,
      "্": 342,
      "ਅ": 343,
      "ਲ": 344,
      "ਹ": 345,
      "ਾ": 346,
      "ੁ": 347,
      "ੱ": 348,
      "അ": 349,
      "ള": 350,
      "ഹ": 351,
      "ാ": 352,
      "്": 353,
      "ก": 354,
      "ค": 355,
      "ง": 356,
      "ช": 357,
      "ซ": 358,
      "ญ": 359,
      "ฐ": 360,
      "ณ": 361,
      "ด": 362,
      "ต": 363,
      "น": 364,
      "บ": 365,
      "ป": 366,
      "พ": 367,
      "ภ": 368,
      "ม": 369,
      "ย": 370,
      "ร": 371,
      "ล": 372,
      "ว": 373,
      "ศ": 374,
      "ษ": 375,
      "ส": 376,
      "ห": 377,
      "อ": 378,
      "ฮ": 379,
      "ะ": 380,
      "ั": 381,
      "า": 382,
      "ิ": 383,
      "ี": 384,
      "ึ": 385,
      "เ": 386,
      "แ": 387,
      "ไ": 388,
      "็": 389,
      "่": 390,
      "้": 391,
      "๊": 392,
      "์": 393,
      "ა": 394,
      "ბ": 395,
      "გ": 396,
      "დ": 397,
      "ე": 398,
      "ვ": 399,
      "ზ": 400,
      "თ": 401,
      "ი": 402,
      "კ": 403,
      "ლ": 404,
      "მ": 405,
      "ნ": 406,
      "ო": 407,
      "პ": 408,
      "ჟ": 409,
      "რ": 410,
      "ს": 411,
      "ტ": 412,
      "უ": 413,
      "ფ": 414,
      "ქ": 415,
      "ღ": 416,
      "ყ": 417,
      "შ": 418,
      "ჩ": 419,
      "ც": 420,
      "ძ": 421,
      "წ": 422,
      "ჭ": 423,
      "ხ": 424,
      "ჯ": 425,
      "ჰ": 426,
      "ჱ": 427,
      "ჲ": 428,
      "ჳ": 429,
      "ჴ": 430,
      "ჵ": 431,
      "ჶ": 432,
      "ჷ": 433,
      "ჸ": 434,
      "ჹ": 435,
      "ჺ": 436,
      "჻": 437,
      "ᵻ": 438,
      "ḍ": 439,
      "ḏ": 440,
      "ḥ": 441,
      "ḷ": 442,
      "ṃ": 443,
      "ṅ": 444,
      "ṇ": 445,
      "ṛ": 446,
      "ṣ": 447,
      "ṭ": 448,
      "ṯ": 449,
      "ạ": 450,
      "ả": 451,
      "ấ": 452,
      "ầ": 453,
      "ậ": 454,
      "ắ": 455,
      "ễ": 456,
      "ệ": 457,
      "ị": 458,
      "ọ": 459,
      "ỏ": 460,
      "ỗ": 461,
      "ộ": 462,
      "ớ": 463,
      "ứ": 464,
      "ử": 465,
      "ữ": 466,
      "ỳ": 467,
      "ỹ": 468,
      "ἀ": 469,
      "ἰ": 470,
      "ὀ": 471,
      "ὁ": 472,
      "ὑ": 473,
      "‐": 474,
      "‑": 475,
      "–": 476,
      "—": 477,
      "―": 478,
      "‘": 479,
      "’": 480,
      "“": 481,
      "”": 482,
      "„": 483,
      "†": 484,
      "‡": 485,
      "•": 486,
      "…": 487,
      "′": 488,
      "″": 489,
      "⁄": 490,
      "₣": 491,
      "₤": 492,
      "€": 493,
      "₹": 494,
      "⅓": 495,
      "⅔": 496,
      "→": 497,
      "−": 498,
      "≡": 499,
      "≤": 500,
      "①": 501,
      "☉": 502,
      "☫": 503,
      "♀": 504,
      "♭": 505,
      "♯": 506,
      "⚳": 507,
      "ⴀ": 508,
      "ⴂ": 509,
      "ⴃ": 510,
      "ⴈ": 511,
      "ⴌ": 512,
      "ⴕ": 513,
      "ⴟ": 514,
      "〈": 515,
      "〉": 516,
      "〜": 517,
      "あ": 518,
      "い": 519,
      "う": 520,
      "お": 521,
      "か": 522,
      "が": 523,
      "き": 524,
      "ぎ": 525,
      "く": 526,
      "ぐ": 527,
      "け": 528,
      "こ": 529,
      "ご": 530,
      "さ": 531,
      "し": 532,
      "す": 533,
      "ず": 534,
      "ぜ": 535,
      "た": 536,
      "だ": 537,
      "ち": 538,
      "っ": 539,
      "つ": 540,
      "と": 541,
      "な": 542,
      "に": 543,
      "の": 544,
      "は": 545,
      "ば": 546,
      "ひ": 547,
      "ふ": 548,
      "ほ": 549,
      "ま": 550,
      "み": 551,
      "め": 552,
      "も": 553,
      "ゃ": 554,
      "ゆ": 555,
      "ょ": 556,
      "ら": 557,
      "り": 558,
      "る": 559,
      "れ": 560,
      "わ": 561,
      "を": 562,
      "ん": 563,
      "ァ": 564,
      "ア": 565,
      "ィ": 566,
      "イ": 567,
      "ゥ": 568,
      "ェ": 569,
      "エ": 570,
      "ォ": 571,
      "オ": 572,
      "カ": 573,
      "ガ": 574,
      "キ": 575,
      "ク": 576,
      "グ": 577,
      "ゲ": 578,
      "コ": 579,
      "サ": 580,
      "シ": 581,
      "ジ": 582,
      "ス": 583,
      "ズ": 584,
      "セ": 585,
      "タ": 586,
      "ダ": 587,
      "チ": 588,
      "ッ": 589,
      "ツ": 590,
      "テ": 591,
      "デ": 592,
      "ト": 593,
      "ド": 594,
      "ナ": 595,
      "ニ": 596,
      "ネ": 597,
      "ノ": 598,
      "ハ": 599,
      "バ": 600,
      "パ": 601,
      "フ": 602,
      "ブ": 603,
      "プ": 604,
      "ヘ": 605,
      "ベ": 606,
      "マ": 607,
      "ミ": 608,
      "ム": 609,
      "モ": 610,
      "ャ": 611,
      "ュ": 612,
      "ョ": 613,
      "ラ": 614,
      "リ": 615,
      "ル": 616,
      "レ": 617,
      "ロ": 618,
      "ン": 619,
      "ヴ": 620,
      "・": 621,
      "ー": 622,
      "一": 623,
      "七": 624,
      "下": 625,
      "世": 626,
      "丙": 627,
      "中": 628,
      "主": 629,
      "乃": 630,
      "之": 631,
      "乙": 632,
      "九": 633,
      "二": 634,
      "云": 635,
      "人": 636,
      "今": 637,
      "付": 638,
      "作": 639,
      "侗": 640,
      "依": 641,
      "信": 642,
      "傳": 643,
      "儚": 644,
      "充": 645,
      "光": 646,
      "全": 647,
      "兵": 648,
      "其": 649,
      "具": 650,
      "円": 651,
      "再": 652,
      "出": 653,
      "判": 654,
      "前": 655,
      "剛": 656,
      "劇": 657,
      "劉": 658,
      "動": 659,
      "化": 660,
      "北": 661,
      "华": 662,
      "厂": 663,
      "去": 664,
      "古": 665,
      "可": 666,
      "台": 667,
      "史": 668,
      "同": 669,
      "名": 670,
      "君": 671,
      "吳": 672,
      "周": 673,
      "命": 674,
      "和": 675,
      "咲": 676,
      "善": 677,
      "四": 678,
      "國": 679,
      "園": 680,
      "圣": 681,
      "在": 682,
      "坂": 683,
      "堤": 684,
      "場": 685,
      "塘": 686,
      "夕": 687,
      "大": 688,
      "天": 689,
      "夫": 690,
      "女": 691,
      "妙": 692,
      "姚": 693,
      "子": 694,
      "孟": 695,
      "守": 696,
      "安": 697,
      "宋": 698,
      "完": 699,
      "宗": 700,
      "宝": 701,
      "宫": 702,
      "寝": 703,
      "寺": 704,
      "小": 705,
      "少": 706,
      "尾": 707,
      "山": 708,
      "岳": 709,
      "川": 710,
      "州": 711,
      "巳": 712,
      "市": 713,
      "師": 714,
      "平": 715,
      "广": 716,
      "庆": 717,
      "府": 718,
      "座": 719,
      "廬": 720,
      "建": 721,
      "式": 722,
      "張": 723,
      "彌": 724,
      "彩": 725,
      "彼": 726,
      "後": 727,
      "御": 728,
      "德": 729,
      "思": 730,
      "愛": 731,
      "憑": 732,
      "憶": 733,
      "應": 734,
      "懷": 735,
      "战": 736,
      "戦": 737,
      "扈": 738,
      "技": 739,
      "拉": 740,
      "拳": 741,
      "挑": 742,
      "揺": 743,
      "攻": 744,
      "放": 745,
      "政": 746,
      "散": 747,
      "斯": 748,
      "方": 749,
      "日": 750,
      "旦": 751,
      "旭": 752,
      "昌": 753,
      "明": 754,
      "星": 755,
      "春": 756,
      "晋": 757,
      "景": 758,
      "曦": 759,
      "月": 760,
      "望": 761,
      "未": 762,
      "本": 763,
      "李": 764,
      "村": 765,
      "杜": 766,
      "束": 767,
      "来": 768,
      "林": 769,
      "桜": 770,
      "梶": 771,
      "棘": 772,
      "椎": 773,
      "楊": 774,
      "楚": 775,
      "榮": 776,
      "橘": 777,
      "機": 778,
      "正": 779,
      "殻": 780,
      "殿": 781,
      "母": 782,
      "水": 783,
      "汉": 784,
      "沂": 785,
      "沙": 786,
      "河": 787,
      "泗": 788,
      "波": 789,
      "泣": 790,
      "洪": 791,
      "淹": 792,
      "清": 793,
      "湯": 794,
      "漢": 795,
      "澄": 796,
      "澤": 797,
      "火": 798,
      "灯": 799,
      "灵": 800,
      "灼": 801,
      "焼": 802,
      "熱": 803,
      "物": 804,
      "狐": 805,
      "狸": 806,
      "玄": 807,
      "王": 808,
      "玩": 809,
      "珂": 810,
      "珙": 811,
      "球": 812,
      "理": 813,
      "琦": 814,
      "琪": 815,
      "瓊": 816,
      "生": 817,
      "田": 818,
      "畢": 819,
      "番": 820,
      "瘡": 821,
      "白": 822,
      "皮": 823,
      "真": 824,
      "砲": 825,
      "礮": 826,
      "祈": 827,
      "神": 828,
      "祠": 829,
      "秋": 830,
      "空": 831,
      "立": 832,
      "精": 833,
      "約": 834,
      "絵": 835,
      "織": 836,
      "義": 837,
      "翠": 838,
      "者": 839,
      "耕": 840,
      "肖": 841,
      "胡": 842,
      "膀": 843,
      "臂": 844,
      "興": 845,
      "良": 846,
      "花": 847,
      "芳": 848,
      "芽": 849,
      "若": 850,
      "英": 851,
      "藕": 852,
      "藥": 853,
      "蘄": 854,
      "蘇": 855,
      "行": 856,
      "裁": 857,
      "規": 858,
      "覺": 859,
      "观": 860,
      "解": 861,
      "記": 862,
      "誓": 863,
      "誡": 864,
      "誰": 865,
      "謎": 866,
      "许": 867,
      "谭": 868,
      "豪": 869,
      "豫": 870,
      "費": 871,
      "贵": 872,
      "赤": 873,
      "趙": 874,
      "足": 875,
      "跡": 876,
      "転": 877,
      "辛": 878,
      "逆": 879,
      "遇": 880,
      "運": 881,
      "過": 882,
      "遠": 883,
      "選": 884,
      "邦": 885,
      "邱": 886,
      "部": 887,
      "郭": 888,
      "都": 889,
      "酈": 890,
      "里": 891,
      "野": 892,
      "金": 893,
      "銃": 894,
      "鋼": 895,
      "錄": 896,
      "錡": 897,
      "鍵": 898,
      "鐵": 899,
      "钱": 900,
      "铁": 901,
      "關": 902,
      "防": 903,
      "阿": 904,
      "陈": 905,
      "陳": 906,
      "陽": 907,
      "隊": 908,
      "階": 909,
      "集": 910,
      "雪": 911,
      "雲": 912,
      "霖": 913,
      "霹": 914,
      "靂": 915,
      "韓": 916,
      "願": 917,
      "顯": 918,
      "颜": 919,
      "马": 920,
      "高": 921,
      "龍": 922,
      "대": 923,
      "독": 924,
      "라": 925,
      "립": 926,
      "병": 927,
      "보": 928,
      "부": 929,
      "알": 930,
      "연": 931,
      "제": 932,
      "ﷲ": 933,
      "ﻋ": 934,
      "／": 935,
      "３": 936,
      "～": 937,
      "th": 938,
      "in": 939,
      "the": 940,
      "an": 941,
      "er": 942,
      "on": 943,
      "re": 944,
      "ed": 945,
      "at": 946,
      "en": 947,
      "st": 948,
      "or": 949,
      "al": 950,
      "ar": 951,
      "and": 952,
      "as": 953,
      "of": 954,
      "is": 955,
      "es": 956,
      "ing": 957,
      "it": 958,
      "to": 959,
      "ro": 960,
      "ic": 961,
      "ou": 962,
      "ion": 963,
      "le": 964,
      "ch": 965,
      "se": 966,
      "am": 967,
      "il": 968,
      "ent": 969,
      "ad": 970,
      "el": 971,
      "ac": 972,
      "om": 973,
      "be": 974,
      "for": 975,
      "de": 976,
      "was": 977,
      "ur": 978,
      "ly": 979,
      "un": 980,
      "ol": 981,
      "wh": 982,
      "im": 983,
      "iv": 984,
      "ir": 985,
      "ig": 986,
      "ow": 987,
      "he": 988,
      "wi": 989,
      "ter": 990,
      "con": 991,
      "ay": 992,
      "ce": 993,
      "ver": 994,
      "with": 995,
      "ag": 996,
      "ation": 997,
      "us": 998,
      "that": 999,
      "by": 1000,
      "ct": 1001,
      "id": 1002,
      "ot": 1003,
      "ap": 1004,
      "su": 1005,
      "com": 1006,
      "te": 1007,
      "pl": 1008,
      "tr": 1009,
      "op": 1010,
      "rom": 1011,
      "mo": 1012,
      "av": 1013,
      "ul": 1014,
      "ne": 1015,
      "ab": 1016,
      "19": 1017,
      "all": 1018,
      "sh": 1019,
      "ain": 1020,
      "are": 1021,
      "pe": 1022,
      "ist": 1023,
      "ers": 1024,
      "ut": 1025,
      "ere": 1026,
      "res": 1027,
      "00": 1028,
      "pro": 1029,
      "um": 1030,
      "cl": 1031,
      "em": 1032,
      "from": 1033,
      "his": 1034,
      "ther": 1035,
      "et": 1036,
      "oun": 1037,
      "ies": 1038,
      "po": 1039,
      "art": 1040,
      "if": 1041,
      "est": 1042,
      "ill": 1043,
      "lo": 1044,
      "ex": 1045,
      "so": 1046,
      "man": 1047,
      "af": 1048,
      "ak": 1049,
      "were": 1050,
      "ri": 1051,
      "igh": 1052,
      "ber": 1053,
      "ast": 1054,
      "ate": 1055,
      "ard": 1056,
      "ong": 1057,
      "ich": 1058,
      "od": 1059,
      "ant": 1060,
      "qu": 1061,
      "per": 1062,
      "ish": 1063,
      "gh": 1064,
      "tw": 1065,
      "ity": 1066,
      "ated": 1067,
      "ame": 1068,
      "one": 1069,
      "au": 1070,
      "ess": 1071,
      "ort": 1072,
      "out": 1073,
      "ear": 1074,
      "ive": 1075,
      "co": 1076,
      "end": 1077,
      "red": 1078,
      "ack": 1079,
      "ie": 1080,
      "ld": 1081,
      "br": 1082,
      "had": 1083,
      "fe": 1084,
      "ge": 1085,
      "ment": 1086,
      "not": 1087,
      "der": 1088,
      "up": 1089,
      "which": 1090,
      "bo": 1091,
      "ip": 1092,
      "ian": 1093,
      "but": 1094,
      "her": 1095,
      "our": 1096,
      "ud": 1097,
      "str": 1098,
      "act": 1099,
      "wor": 1100,
      "ine": 1101,
      "ial": 1102,
      "sp": 1103,
      "ell": 1104,
      "its": 1105,
      "du": 1106,
      "ia": 1107,
      "ical": 1108,
      "ave": 1109,
      "bl": 1110,
      "ight": 1111,
      "fir": 1112,
      "ary": 1113,
      "ass": 1114,
      "ach": 1115,
      "cor": 1116,
      "this": 1117,
      "gr": 1118,
      "200": 1119,
      "aw": 1120,
      "over": 1121,
      "no": 1122,
      "land": 1123,
      "ser": 1124,
      "cr": 1125,
      "20": 1126,
      "their": 1127,
      "ous": 1128,
      "first": 1129,
      "tim": 1130,
      "fo": 1131,
      "mar": 1132,
      "pr": 1133,
      "own": 1134,
      "other": 1135,
      "si": 1136,
      "ke": 1137,
      "after": 1138,
      "age": 1139,
      "port": 1140,
      "gu": 1141,
      "me": 1142,
      "ire": 1143,
      "ould": 1144,
      "pt": 1145,
      "ind": 1146,
      "they": 1147,
      "form": 1148,
      "also": 1149,
      "ve": 1150,
      "ition": 1151,
      "play": 1152,
      "sc": 1153,
      "int": 1154,
      "comm": 1155,
      "ater": 1156,
      "comp": 1157,
      "new": 1158,
      "part": 1159,
      "ction": 1160,
      "ign": 1161,
      "ound": 1162,
      "has": 1163,
      "pres": 1164,
      "cent": 1165,
      "oc": 1166,
      "des": 1167,
      "att": 1168,
      "ure": 1169,
      "li": 1170,
      "two": 1171,
      "ev": 1172,
      "who": 1173,
      "have": 1174,
      "pre": 1175,
      "we": 1176,
      "cre": 1177,
      "18": 1178,
      "low": 1179,
      "pos": 1180,
      "off": 1181,
      "dis": 1182,
      "ally": 1183,
      "ok": 1184,
      "ence": 1185,
      "been": 1186,
      "nor": 1187,
      "ome": 1188,
      "rou": 1189,
      "she": 1190,
      "ough": 1191,
      "ile": 1192,
      "year": 1193,
      "ph": 1194,
      "uring": 1195,
      "ite": 1196,
      "col": 1197,
      "ang": 1198,
      "ree": 1199,
      "cont": 1200,
      "vi": 1201,
      "ade": 1202,
      "ory": 1203,
      "inter": 1204,
      "jo": 1205,
      "can": 1206,
      "201": 1207,
      "ren": 1208,
      "fl": 1209,
      "old": 1210,
      "fin": 1211,
      "cord": 1212,
      "ck": 1213,
      "dr": 1214,
      "ely": 1215,
      "incl": 1216,
      "ance": 1217,
      "ved": 1218,
      "ace": 1219,
      "ations": 1220,
      "mon": 1221,
      "ship": 1222,
      "spe": 1223,
      "ice": 1224,
      "air": 1225,
      "able": 1226,
      "urn": 1227,
      "fer": 1228,
      "eng": 1229,
      "during": 1230,
      "gro": 1231,
      "time": 1232,
      "most": 1233,
      "par": 1234,
      "when": 1235,
      "ans": 1236,
      "ted": 1237,
      "sou": 1238,
      "iz": 1239,
      "fr": 1240,
      "ty": 1241,
      "vel": 1242,
      "go": 1243,
      "min": 1244,
      "more": 1245,
      "ts": 1246,
      "gen": 1247,
      "song": 1248,
      "tem": 1249,
      "und": 1250,
      "sion": 1251,
      "ever": 1252,
      "ced": 1253,
      "work": 1254,
      "ail": 1255,
      "rough": 1256,
      "into": 1257,
      "coun": 1258,
      "ep": 1259,
      "ath": 1260,
      "fore": 1261,
      "rit": 1262,
      "ces": 1263,
      "reg": 1264,
      "ick": 1265,
      "way": 1266,
      "ied": 1267,
      "char": 1268,
      "main": 1269,
      "bec": 1270,
      "cond": 1271,
      "ten": 1272,
      "ue": 1273,
      "would": 1274,
      "ason": 1275,
      "amp": 1276,
      "sy": 1277,
      "though": 1278,
      "used": 1279,
      "him": 1280,
      "car": 1281,
      "ann": 1282,
      "ited": 1283,
      "cted": 1284,
      "day": 1285,
      "bu": 1286,
      "ma": 1287,
      "ings": 1288,
      "while": 1289,
      "ased": 1290,
      "under": 1291,
      "game": 1292,
      "ents": 1293,
      "een": 1294,
      "war": 1295,
      "includ": 1296,
      "pu": 1297,
      "some": 1298,
      "ates": 1299,
      "only": 1300,
      "fil": 1301,
      "any": 1302,
      "rel": 1303,
      "may": 1304,
      "sing": 1305,
      "son": 1306,
      "ican": 1307,
      "med": 1308,
      "mi": 1309,
      "ake": 1310,
      "kn": 1311,
      "gan": 1312,
      "ase": 1313,
      "cess": 1314,
      "je": 1315,
      "ions": 1316,
      "ild": 1317,
      "fol": 1318,
      "how": 1319,
      "os": 1320,
      "ju": 1321,
      "there": 1322,
      "les": 1323,
      "ble": 1324,
      "mus": 1325,
      "als": 1326,
      "record": 1327,
      "lar": 1328,
      "do": 1329,
      "ra": 1330,
      "them": 1331,
      "ict": 1332,
      "three": 1333,
      "about": 1334,
      "later": 1335,
      "ret": 1336,
      "vis": 1337,
      "high": 1338,
      "ens": 1339,
      "ss": 1340,
      "tow": 1341,
      "publ": 1342,
      "sel": 1343,
      "season": 1344,
      "ors": 1345,
      "through": 1346,
      "than": 1347,
      "cap": 1348,
      "produ": 1349,
      "my": 1350,
      "eld": 1351,
      "ful": 1352,
      "vie": 1353,
      "199": 1354,
      "tween": 1355,
      "between": 1356,
      "again": 1357,
      "west": 1358,
      "follow": 1359,
      "stru": 1360,
      "og": 1361,
      "num": 1362,
      "spec": 1363,
      "ger": 1364,
      "amer": 1365,
      "ational": 1366,
      "writ": 1367,
      "film": 1368,
      "where": 1369,
      "bro": 1370,
      "king": 1371,
      "ular": 1372,
      "call": 1373,
      "rele": 1374,
      "sch": 1375,
      "sub": 1376,
      "led": 1377,
      "ating": 1378,
      "ste": 1379,
      "ton": 1380,
      "pol": 1381,
      "ics": 1382,
      "gre": 1383,
      "cer": 1384,
      "second": 1385,
      "ames": 1386,
      "set": 1387,
      "view": 1388,
      "10": 1389,
      "north": 1390,
      "ult": 1391,
      "io": 1392,
      "alb": 1393,
      "then": 1394,
      "ry": 1395,
      "back": 1396,
      "sur": 1397,
      "made": 1398,
      "four": 1399,
      "ished": 1400,
      "well": 1401,
      "bar": 1402,
      "tain": 1403,
      "ci": 1404,
      "ury": 1405,
      "ele": 1406,
      "city": 1407,
      "many": 1408,
      "world": 1409,
      "riv": 1410,
      "arch": 1411,
      "appe": 1412,
      "fi": 1413,
      "mu": 1414,
      "such": 1415,
      "ered": 1416,
      "album": 1417,
      "south": 1418,
      "ho": 1419,
      "before": 1420,
      "aid": 1421,
      "000": 1422,
      "bel": 1423,
      "ose": 1424,
      "ters": 1425,
      "cons": 1426,
      "ards": 1427,
      "gener": 1428,
      "cur": 1429,
      "national": 1430,
      "hist": 1431,
      "series": 1432,
      "mis": 1433,
      "ning": 1434,
      "sup": 1435,
      "loc": 1436,
      "ek": 1437,
      "add": 1438,
      "16": 1439,
      "pop": 1440,
      "sever": 1441,
      "ily": 1442,
      "ific": 1443,
      "ank": 1444,
      "ual": 1445,
      "both": 1446,
      "being": 1447,
      "years": 1448,
      "sim": 1449,
      "these": 1450,
      "ob": 1451,
      "urch": 1452,
      "found": 1453,
      "12": 1454,
      "stud": 1455,
      "az": 1456,
      "ious": 1457,
      "star": 1458,
      "point": 1459,
      "long": 1460,
      "cri": 1461,
      "ca": 1462,
      "will": 1463,
      "15": 1464,
      "div": 1465,
      "ale": 1466,
      "however": 1467,
      "line": 1468,
      "17": 1469,
      "rop": 1470,
      "known": 1471,
      "dire": 1472,
      "down": 1473,
      "ef": 1474,
      "number": 1475,
      "oper": 1476,
      "cle": 1477,
      "unt": 1478,
      "rece": 1479,
      "ven": 1480,
      "ins": 1481,
      "serv": 1482,
      "ities": 1483,
      "ird": 1484,
      "lan": 1485,
      "state": 1486,
      "side": 1487,
      "ub": 1488,
      "let": 1489,
      "mill": 1490,
      "orig": 1491,
      "batt": 1492,
      "ause": 1493,
      "music": 1494,
      "east": 1495,
      "ince": 1496,
      "mem": 1497,
      "row": 1498,
      "mat": 1499,
      "hn": 1500,
      "stor": 1501,
      "ii": 1502,
      "ived": 1503,
      "velop": 1504,
      "early": 1505,
      "ines": 1506,
      "like": 1507,
      "charac": 1508,
      "epis": 1509,
      "brit": 1510,
      "several": 1511,
      "inv": 1512,
      "sul": 1513,
      "ern": 1514,
      "jor": 1515,
      "olog": 1516,
      "descri": 1517,
      "including": 1518,
      "against": 1519,
      "develop": 1520,
      "show": 1521,
      "hy": 1522,
      "origin": 1523,
      "head": 1524,
      "team": 1525,
      "became": 1526,
      "uary": 1527,
      "rol": 1528,
      "sm": 1529,
      "feat": 1530,
      "ode": 1531,
      "cover": 1532,
      "ped": 1533,
      "ond": 1534,
      "ident": 1535,
      "bed": 1536,
      "var": 1537,
      "united": 1538,
      "crit": 1539,
      "lif": 1540,
      "198": 1541,
      "ham": 1542,
      "ise": 1543,
      "ft": 1544,
      "cy": 1545,
      "ai": 1546,
      "mil": 1547,
      "try": 1548,
      "30": 1549,
      "lead": 1550,
      "ms": 1551,
      "ative": 1552,
      "hel": 1553,
      "although": 1554,
      "contin": 1555,
      "ball": 1556,
      "leg": 1557,
      "mer": 1558,
      "peri": 1559,
      "dif": 1560,
      "chr": 1561,
      "john": 1562,
      "care": 1563,
      "suc": 1564,
      "ised": 1565,
      "nam": 1566,
      "century": 1567,
      "dist": 1568,
      "met": 1569,
      "ures": 1570,
      "open": 1571,
      "hou": 1572,
      "run": 1573,
      "bor": 1574,
      "sign": 1575,
      "following": 1576,
      "ib": 1577,
      "eu": 1578,
      "ley": 1579,
      "ting": 1580,
      "vem": 1581,
      "present": 1582,
      "fam": 1583,
      "194": 1584,
      "called": 1585,
      "ared": 1586,
      "gover": 1587,
      "por": 1588,
      "town": 1589,
      "church": 1590,
      "mark": 1591,
      "near": 1592,
      "along": 1593,
      "ments": 1594,
      "cial": 1595,
      "ually": 1596,
      "began": 1597,
      "196": 1598,
      "use": 1599,
      "pers": 1600,
      "jun": 1601,
      "197": 1602,
      "ide": 1603,
      "because": 1604,
      "ross": 1605,
      "remain": 1606,
      "public": 1607,
      "dam": 1608,
      "ject": 1609,
      "pass": 1610,
      "could": 1611,
      "did": 1612,
      "road": 1613,
      "roy": 1614,
      "six": 1615,
      "men": 1616,
      "ended": 1617,
      "dep": 1618,
      "episode": 1619,
      "self": 1620,
      "tre": 1621,
      "dec": 1622,
      "book": 1623,
      "ision": 1624,
      "dom": 1625,
      "val": 1626,
      "ork": 1627,
      "ople": 1628,
      "area": 1629,
      "aking": 1630,
      "field": 1631,
      "until": 1632,
      "said": 1633,
      "ah": 1634,
      "gg": 1635,
      "group": 1636,
      "bre": 1637,
      "tit": 1638,
      "prote": 1639,
      "sk": 1640,
      "success": 1641,
      "13": 1642,
      "american": 1643,
      "states": 1644,
      "vide": 1645,
      "now": 1646,
      "pow": 1647,
      "jan": 1648,
      "less": 1649,
      "grap": 1650,
      "design": 1651,
      "ress": 1652,
      "people": 1653,
      "start": 1654,
      "position": 1655,
      "gust": 1656,
      "appear": 1657,
      "light": 1658,
      "tal": 1659,
      "ized": 1660,
      "life": 1661,
      "ica": 1662,
      "ital": 1663,
      "offic": 1664,
      "water": 1665,
      "you": 1666,
      "return": 1667,
      "14": 1668,
      "plac": 1669,
      "cour": 1670,
      "stem": 1671,
      "released": 1672,
      "since": 1673,
      "xt": 1674,
      "cept": 1675,
      "ange": 1676,
      "british": 1677,
      "50": 1678,
      "di": 1679,
      "cast": 1680,
      "trans": 1681,
      "each": 1682,
      "company": 1683,
      "same": 1684,
      "ash": 1685,
      "ple": 1686,
      "del": 1687,
      "ys": 1688,
      "thern": 1689,
      "bod": 1690,
      "around": 1691,
      "def": 1692,
      "come": 1693,
      "ists": 1694,
      "km": 1695,
      "win": 1696,
      "mag": 1697,
      "lit": 1698,
      "ool": 1699,
      "million": 1700,
      "major": 1701,
      "fect": 1702,
      "formed": 1703,
      "wal": 1704,
      "week": 1705,
      "just": 1706,
      "five": 1707,
      "har": 1708,
      "track": 1709,
      "read": 1710,
      "camp": 1711,
      "ided": 1712,
      "best": 1713,
      "soci": 1714,
      "fur": 1715,
      "ling": 1716,
      "pen": 1717,
      "august": 1718,
      "what": 1719,
      "support": 1720,
      "command": 1721,
      "attack": 1722,
      "school": 1723,
      "govern": 1724,
      "sep": 1725,
      "stand": 1726,
      "small": 1727,
      "final": 1728,
      "ground": 1729,
      "character": 1730,
      "system": 1731,
      "ather": 1732,
      "hum": 1733,
      "ore": 1734,
      "ood": 1735,
      "ze": 1736,
      "another": 1737,
      "river": 1738,
      "class": 1739,
      "rest": 1740,
      "mor": 1741,
      "consid": 1742,
      "direct": 1743,
      "mid": 1744,
      "continu": 1745,
      "gun": 1746,
      "get": 1747,
      "ves": 1748,
      "ons": 1749,
      "stral": 1750,
      "even": 1751,
      "ured": 1752,
      "ner": 1753,
      "ivers": 1754,
      "top": 1755,
      "comple": 1756,
      "great": 1757,
      "prom": 1758,
      "tember": 1759,
      "september": 1760,
      "adv": 1761,
      "gy": 1762,
      "report": 1763,
      "aim": 1764,
      "house": 1765,
      "games": 1766,
      "hal": 1767,
      "ward": 1768,
      "dy": 1769,
      "large": 1770,
      "ord": 1771,
      "requ": 1772,
      "austral": 1773,
      "child": 1774,
      "hav": 1775,
      "la": 1776,
      "order": 1777,
      "lish": 1778,
      "ural": 1779,
      "resul": 1780,
      "leag": 1781,
      "band": 1782,
      "build": 1783,
      "hur": 1784,
      "ages": 1785,
      "black": 1786,
      "ae": 1787,
      "due": 1788,
      "white": 1789,
      "den": 1790,
      "species": 1791,
      "last": 1792,
      "contr": 1793,
      "constru": 1794,
      "ically": 1795,
      "name": 1796,
      "rican": 1797,
      "11": 1798,
      "ru": 1799,
      "sol": 1800,
      "cut": 1801,
      "ium": 1802,
      "list": 1803,
      "aged": 1804,
      "short": 1805,
      "ont": 1806,
      "played": 1807,
      "history": 1808,
      "ism": 1809,
      "bers": 1810,
      "home": 1811,
      "allow": 1812,
      "june": 1813,
      "tle": 1814,
      "turn": 1815,
      "appro": 1816,
      "won": 1817,
      "apr": 1818,
      "giv": 1819,
      "storm": 1820,
      "0s": 1821,
      "organ": 1822,
      "government": 1823,
      "review": 1824,
      "dest": 1825,
      "prov": 1826,
      "ately": 1827,
      "25": 1828,
      "reach": 1829,
      "hor": 1830,
      "partic": 1831,
      "island": 1832,
      "power": 1833,
      "ional": 1834,
      "pat": 1835,
      "ement": 1836,
      "gl": 1837,
      "ined": 1838,
      "received": 1839,
      "christ": 1840,
      "ained": 1841,
      "fall": 1842,
      "stre": 1843,
      "resp": 1844,
      "club": 1845,
      "ron": 1846,
      "bus": 1847,
      "ired": 1848,
      "took": 1849,
      "accord": 1850,
      "late": 1851,
      "place": 1852,
      "colle": 1853,
      "described": 1854,
      "family": 1855,
      "ility": 1856,
      "much": 1857,
      "hand": 1858,
      "cas": 1859,
      "ier": 1860,
      "within": 1861,
      "moun": 1862,
      "named": 1863,
      "incre": 1864,
      "god": 1865,
      "ilt": 1866,
      "march": 1867,
      "death": 1868,
      "fic": 1869,
      "ask": 1870,
      "league": 1871,
      "general": 1872,
      "gin": 1873,
      "octo": 1874,
      "tech": 1875,
      "october": 1876,
      "ats": 1877,
      "fort": 1878,
      "sl": 1879,
      "moved": 1880,
      "wood": 1881,
      "ali": 1882,
      "very": 1883,
      "na": 1884,
      "times": 1885,
      "according": 1886,
      "rote": 1887,
      "ropical": 1888,
      "sed": 1889,
      "ants": 1890,
      "sequ": 1891,
      "third": 1892,
      "ina": 1893,
      "ude": 1894,
      "vo": 1895,
      "pri": 1896,
      "ively": 1897,
      "wrote": 1898,
      "vious": 1899,
      "single": 1900,
      "july": 1901,
      "york": 1902,
      "story": 1903,
      "gar": 1904,
      "control": 1905,
      "fle": 1906,
      "ha": 1907,
      "video": 1908,
      "person": 1909,
      "ni": 1910,
      "ony": 1911,
      "event": 1912,
      "aft": 1913,
      "posed": 1914,
      "differ": 1915,
      "ians": 1916,
      "som": 1917,
      "univers": 1918,
      "based": 1919,
      "right": 1920,
      "ink": 1921,
      "ships": 1922,
      "far": 1923,
      "ler": 1924,
      "tempt": 1925,
      "euro": 1926,
      "april": 1927,
      "sport": 1928,
      "fri": 1929,
      "belie": 1930,
      "ery": 1931,
      "estab": 1932,
      "sen": 1933,
      "included": 1934,
      "addition": 1935,
      "cus": 1936,
      "german": 1937,
      "195": 1938,
      "division": 1939,
      "real": 1940,
      "foot": 1941,
      "built": 1942,
      "nat": 1943,
      "sent": 1944,
      "tropical": 1945,
      "those": 1946,
      "version": 1947,
      "expl": 1948,
      "january": 1949,
      "aur": 1950,
      "left": 1951,
      "commun": 1952,
      "force": 1953,
      "ified": 1954,
      "akes": 1955,
      "attempt": 1956,
      "sci": 1957,
      "england": 1958,
      "pect": 1959,
      "original": 1960,
      "vol": 1961,
      "claim": 1962,
      "period": 1963,
      "squ": 1964,
      "vill": 1965,
      "rock": 1966,
      "dece": 1967,
      "previous": 1968,
      "fed": 1969,
      "gram": 1970,
      "law": 1971,
      "dan": 1972,
      "itch": 1973,
      "cup": 1974,
      "auth": 1975,
      "ilar": 1976,
      "thing": 1977,
      "issu": 1978,
      "ness": 1979,
      "centr": 1980,
      "fac": 1981,
      "heav": 1982,
      "ops": 1983,
      "make": 1984,
      "flu": 1985,
      "champ": 1986,
      "ament": 1987,
      "production": 1988,
      "193": 1989,
      "novem": 1990,
      "november": 1991,
      "kill": 1992,
      "wom": 1993,
      "sum": 1994,
      "ulation": 1995,
      "ially": 1996,
      "player": 1997,
      "ned": 1998,
      "month": 1999,
      "bat": 2000,
      "ny": 2001,
      "ets": 2002,
      "europe": 2003,
      "ives": 2004,
      "match": 2005,
      "mber": 2006,
      "tour": 2007,
      "ains": 2008,
      "init": 2009,
      "ety": 2010,
      "vision": 2011,
      "similar": 2012,
      "action": 2013,
      "mal": 2014,
      "december": 2015,
      "bur": 2016,
      "ption": 2017,
      "rad": 2018,
      "wind": 2019,
      "tele": 2020,
      "milit": 2021,
      "among": 2022,
      "songs": 2023,
      "hurrican": 2024,
      "indu": 2025,
      "lim": 2026,
      "polit": 2027,
      "sco": 2028,
      "still": 2029,
      "que": 2030,
      "lat": 2031,
      "local": 2032,
      "further": 2033,
      "don": 2034,
      "rench": 2035,
      "park": 2036,
      "post": 2037,
      "bert": 2038,
      "ences": 2039,
      "ute": 2040,
      "sw": 2041,
      "using": 2042,
      "histor": 2043,
      "24": 2044,
      "bs": 2045,
      "inst": 2046,
      "vict": 2047,
      "ime": 2048,
      "bill": 2049,
      "say": 2050,
      "next": 2051,
      "mc": 2052,
      "quar": 2053,
      "2009": 2054,
      "fact": 2055,
      "ring": 2056,
      "youn": 2057,
      "trad": 2058,
      "26": 2059,
      "role": 2060,
      "former": 2061,
      "2008": 2062,
      "feder": 2063,
      "2010": 2064,
      "fire": 2065,
      "ison": 2066,
      "plan": 2067,
      "half": 2068,
      "21": 2069,
      "ides": 2070,
      "test": 2071,
      "ently": 2072,
      "forman": 2073,
      "put": 2074,
      "import": 2075,
      "possi": 2076,
      "28": 2077,
      "brig": 2078,
      "draw": 2079,
      "body": 2080,
      "bas": 2081,
      "sty": 2082,
      "ark": 2083,
      "came": 2084,
      "love": 2085,
      "vent": 2086,
      "round": 2087,
      "common": 2088,
      "23": 2089,
      "lab": 2090,
      "sal": 2091,
      "performan": 2092,
      "ends": 2093,
      "night": 2094,
      "vir": 2095,
      "every": 2096,
      "often": 2097,
      "career": 2098,
      "university": 2099,
      "fun": 2100,
      "100": 2101,
      "without": 2102,
      "chang": 2103,
      "aken": 2104,
      "recorded": 2105,
      "blo": 2106,
      "ese": 2107,
      "chart": 2108,
      "pet": 2109,
      "ba": 2110,
      "ric": 2111,
      "see": 2112,
      "effect": 2113,
      "flo": 2114,
      "hurricane": 2115,
      "prof": 2116,
      "ending": 2117,
      "considered": 2118,
      "military": 2119,
      "pa": 2120,
      "refer": 2121,
      "sugg": 2122,
      "continued": 2123,
      "suggest": 2124,
      "els": 2125,
      "sem": 2126,
      "battal": 2127,
      "few": 2128,
      "ster": 2129,
      "stri": 2130,
      "army": 2131,
      "seven": 2132,
      "ution": 2133,
      "take": 2134,
      "moder": 2135,
      "release": 2136,
      "published": 2137,
      "rich": 2138,
      "associ": 2139,
      "2007": 2140,
      "graph": 2141,
      "nav": 2142,
      "oy": 2143,
      "sold": 2144,
      "level": 2145,
      "ford": 2146,
      "search": 2147,
      "written": 2148,
      "placed": 2149,
      "held": 2150,
      "bird": 2151,
      "english": 2152,
      "inc": 2153,
      "strong": 2154,
      "french": 2155,
      "never": 2156,
      "award": 2157,
      "struct": 2158,
      "battle": 2159,
      "sit": 2160,
      "ax": 2161,
      "burn": 2162,
      "days": 2163,
      "author": 2164,
      "different": 2165,
      "tro": 2166,
      "ator": 2167,
      "aining": 2168,
      "ving": 2169,
      "cult": 2170,
      "stat": 2171,
      "forces": 2172,
      "larg": 2173,
      "app": 2174,
      "stead": 2175,
      "tor": 2176,
      "project": 2177,
      "manag": 2178,
      "ico": 2179,
      "international": 2180,
      "hol": 2181,
      "itar": 2182,
      "champion": 2183,
      "route": 2184,
      "27": 2185,
      "gal": 2186,
      "whe": 2187,
      "lost": 2188,
      "jack": 2189,
      "board": 2190,
      "good": 2191,
      "popular": 2192,
      "augh": 2193,
      "ston": 2194,
      "activ": 2195,
      "minist": 2196,
      "22": 2197,
      "find": 2198,
      "non": 2199,
      "pur": 2200,
      "ben": 2201,
      "nes": 2202,
      "sound": 2203,
      "uc": 2204,
      "iment": 2205,
      "super": 2206,
      "gold": 2207,
      "having": 2208,
      "bal": 2209,
      "idge": 2210,
      "county": 2211,
      "concer": 2212,
      "mix": 2213,
      "children": 2214,
      "ga": 2215,
      "western": 2216,
      "hold": 2217,
      "aster": 2218,
      "throughout": 2219,
      "enter": 2220,
      "roman": 2221,
      "2011": 2222,
      "clear": 2223,
      "development": 2224,
      "construction": 2225,
      "young": 2226,
      "elt": 2227,
      "desp": 2228,
      "fan": 2229,
      "face": 2230,
      "grand": 2231,
      "become": 2232,
      "writing": 2233,
      "2006": 2234,
      "away": 2235,
      "craft": 2236,
      "key": 2237,
      "canad": 2238,
      "particular": 2239,
      "total": 2240,
      "scen": 2241,
      "pal": 2242,
      "liv": 2243,
      "ology": 2244,
      "title": 2245,
      "ock": 2246,
      "members": 2247,
      "uk": 2248,
      "look": 2249,
      "program": 2250,
      "country": 2251,
      "highway": 2252,
      "human": 2253,
      "gn": 2254,
      "ps": 2255,
      "central": 2256,
      "fem": 2257,
      "cell": 2258,
      "rang": 2259,
      "atch": 2260,
      "despite": 2261,
      "live": 2262,
      "represent": 2263,
      "father": 2264,
      "nu": 2265,
      "decl": 2266,
      "given": 2267,
      "bi": 2268,
      "want": 2269,
      "ances": 2270,
      "ush": 2271,
      "little": 2272,
      "southern": 2273,
      "site": 2274,
      "produced": 2275,
      "bruary": 2276,
      "february": 2277,
      "capt": 2278,
      "critic": 2279,
      "successful": 2280,
      "reported": 2281,
      "cal": 2282,
      "geor": 2283,
      "gave": 2284,
      "tom": 2285,
      "cru": 2286,
      "dylan": 2287,
      "wn": 2288,
      "served": 2289,
      "ination": 2290,
      "tran": 2291,
      "novel": 2292,
      "fre": 2293,
      "influ": 2294,
      "once": 2295,
      "ising": 2296,
      "cou": 2297,
      "sure": 2298,
      "ailed": 2299,
      "free": 2300,
      "ior": 2301,
      "modern": 2302,
      "dou": 2303,
      "nd": 2304,
      "ices": 2305,
      "ney": 2306,
      "coast": 2307,
      "2012": 2308,
      "television": 2309,
      "bri": 2310,
      "cu": 2311,
      "equ": 2312,
      "mich": 2313,
      "covered": 2314,
      "service": 2315,
      "cop": 2316,
      "hero": 2317,
      "ctions": 2318,
      "apan": 2319,
      "president": 2320,
      "close": 2321,
      "northern": 2322,
      "respon": 2323,
      "sun": 2324,
      "seen": 2325,
      "mass": 2326,
      "making": 2327,
      "station": 2328,
      "ama": 2329,
      "building": 2330,
      "too": 2331,
      "word": 2332,
      "scri": 2333,
      "room": 2334,
      "guitar": 2335,
      "invol": 2336,
      "signific": 2337,
      "japan": 2338,
      "include": 2339,
      "ably": 2340,
      "29": 2341,
      "stone": 2342,
      "intro": 2343,
      "front": 2344,
      "xim": 2345,
      "royal": 2346,
      "dav": 2347,
      "mot": 2348,
      "battalion": 2349,
      "bit": 2350,
      "pression": 2351,
      "ged": 2352,
      "const": 2353,
      "trav": 2354,
      "van": 2355,
      "went": 2356,
      "should": 2357,
      "developed": 2358,
      "ext": 2359,
      "eastern": 2360,
      "iam": 2361,
      "ns": 2362,
      "stated": 2363,
      "ried": 2364,
      "cross": 2365,
      "ots": 2366,
      "occur": 2367,
      "ken": 2368,
      "ran": 2369,
      "viet": 2370,
      "2013": 2371,
      "aver": 2372,
      "bow": 2373,
      "fig": 2374,
      "fif": 2375,
      "rap": 2376,
      "sea": 2377,
      "antic": 2378,
      "ours": 2379,
      "depend": 2380,
      "40": 2381,
      "agre": 2382,
      "full": 2383,
      "destroy": 2384,
      "mit": 2385,
      "change": 2386,
      "ull": 2387,
      "exp": 2388,
      "eight": 2389,
      "coming": 2390,
      "prim": 2391,
      "mother": 2392,
      "press": 2393,
      "lished": 2394,
      "wall": 2395,
      "tru": 2396,
      "established": 2397,
      "introdu": 2398,
      "instead": 2399,
      "across": 2400,
      "returned": 2401,
      "lin": 2402,
      "typ": 2403,
      "itions": 2404,
      "suf": 2405,
      "ploy": 2406,
      "earli": 2407,
      "mean": 2408,
      "aren": 2409,
      "hind": 2410,
      "population": 2411,
      "190": 2412,
      "ensive": 2413,
      "america": 2414,
      "hu": 2415,
      "ither": 2416,
      "announ": 2417,
      "broad": 2418,
      "style": 2419,
      "civ": 2420,
      "cho": 2421,
      "noted": 2422,
      "court": 2423,
      "ades": 2424,
      "cro": 2425,
      "thought": 2426,
      "result": 2427,
      "reached": 2428,
      "official": 2429,
      "football": 2430,
      "ref": 2431,
      "ireland": 2432,
      "phil": 2433,
      "elect": 2434,
      "tar": 2435,
      "teen": 2436,
      "players": 2437,
      "brigade": 2438,
      "ument": 2439,
      "rent": 2440,
      "important": 2441,
      "works": 2442,
      "various": 2443,
      "lond": 2444,
      "pan": 2445,
      "rul": 2446,
      "aint": 2447,
      "engine": 2448,
      "significant": 2449,
      "mm": 2450,
      "william": 2451,
      "ey": 2452,
      "ibut": 2453,
      "range": 2454,
      "miles": 2455,
      "street": 2456,
      "london": 2457,
      "felt": 2458,
      "ief": 2459,
      "performance": 2460,
      "cir": 2461,
      "ban": 2462,
      "acy": 2463,
      "ott": 2464,
      "sex": 2465,
      "himself": 2466,
      "kingdom": 2467,
      "atl": 2468,
      "arriv": 2469,
      "need": 2470,
      "performed": 2471,
      "tur": 2472,
      "formation": 2473,
      "ways": 2474,
      "cil": 2475,
      "rain": 2476,
      "san": 2477,
      "vic": 2478,
      "wil": 2479,
      "ission": 2480,
      "unch": 2481,
      "hen": 2482,
      "idence": 2483,
      "born": 2484,
      "australia": 2485,
      "hot": 2486,
      "iness": 2487,
      "bet": 2488,
      "interest": 2489,
      "located": 2490,
      "feet": 2491,
      "pra": 2492,
      "60": 2493,
      "hill": 2494,
      "areas": 2495,
      "mission": 2496,
      "experi": 2497,
      "events": 2498,
      "relation": 2499,
      "does": 2500,
      "civil": 2501,
      "base": 2502,
      "upon": 2503,
      "begin": 2504,
      "dre": 2505,
      "hon": 2506,
      "poem": 2507,
      "died": 2508,
      "hab": 2509,
      "era": 2510,
      "conne": 2511,
      "earth": 2512,
      "relig": 2513,
      "brown": 2514,
      "mad": 2515,
      "hom": 2516,
      "hop": 2517,
      "anim": 2518,
      "ones": 2519,
      "abo": 2520,
      "surv": 2521,
      "appeared": 2522,
      "others": 2523,
      "know": 2524,
      "aign": 2525,
      "cing": 2526,
      "ago": 2527,
      "appoint": 2528,
      "originally": 2529,
      "grad": 2530,
      "member": 2531,
      "campaign": 2532,
      "stars": 2533,
      "ino": 2534,
      "started": 2535,
      "ram": 2536,
      "ense": 2537,
      "toge": 2538,
      "ization": 2539,
      "james": 2540,
      "mp": 2541,
      "profess": 2542,
      "ges": 2543,
      "nal": 2544,
      "characters": 2545,
      "women": 2546,
      "political": 2547,
      "together": 2548,
      "dev": 2549,
      "vers": 2550,
      "lik": 2551,
      "fight": 2552,
      "anti": 2553,
      "pho": 2554,
      "net": 2555,
      "created": 2556,
      "special": 2557,
      "promot": 2558,
      "ological": 2559,
      "director": 2560,
      "che": 2561,
      "vert": 2562,
      "tradition": 2563,
      "nar": 2564,
      "nom": 2565,
      "fav": 2566,
      "center": 2567,
      "caused": 2568,
      "vari": 2569,
      "tra": 2570,
      "count": 2571,
      "eventually": 2572,
      "bey": 2573,
      "189": 2574,
      "region": 2575,
      "research": 2576,
      "union": 2577,
      "alth": 2578,
      "critics": 2579,
      "bir": 2580,
      "nia": 2581,
      "saw": 2582,
      "ival": 2583,
      "bay": 2584,
      "ality": 2585,
      "entire": 2586,
      "aves": 2587,
      "2004": 2588,
      "ample": 2589,
      "taken": 2590,
      "yard": 2591,
      "ability": 2592,
      "2005": 2593,
      "grow": 2594,
      "sat": 2595,
      "dem": 2596,
      "aff": 2597,
      "colon": 2598,
      "magaz": 2599,
      "sts": 2600,
      "theast": 2601,
      "ars": 2602,
      "lower": 2603,
      "break": 2604,
      "mac": 2605,
      "sil": 2606,
      "independ": 2607,
      "commission": 2608,
      "ara": 2609,
      "exist": 2610,
      "card": 2611,
      "ik": 2612,
      "sess": 2613,
      "iting": 2614,
      "lu": 2615,
      "move": 2616,
      "guns": 2617,
      "bol": 2618,
      "chap": 2619,
      "meet": 2620,
      "playing": 2621,
      "langu": 2622,
      "ida": 2623,
      "heavy": 2624,
      "cogn": 2625,
      "crow": 2626,
      "got": 2627,
      "asing": 2628,
      "debut": 2629,
      "loss": 2630,
      "commer": 2631,
      "cret": 2632,
      "diffic": 2633,
      "completed": 2634,
      "case": 2635,
      "lines": 2636,
      "names": 2637,
      "voc": 2638,
      "remained": 2639,
      "depart": 2640,
      "gress": 2641,
      "ping": 2642,
      "mach": 2643,
      "ray": 2644,
      "regular": 2645,
      "scored": 2646,
      "ille": 2647,
      "compan": 2648,
      "vement": 2649,
      "announced": 2650,
      "jour": 2651,
      "ature": 2652,
      "process": 2653,
      "fourth": 2654,
      "australian": 2655,
      "ming": 2656,
      "rail": 2657,
      "ivid": 2658,
      "atic": 2659,
      "almost": 2660,
      "wide": 2661,
      "current": 2662,
      "possible": 2663,
      "cul": 2664,
      "fly": 2665,
      "tv": 2666,
      "itive": 2667,
      "comment": 2668,
      "peak": 2669,
      "damage": 2670,
      "inated": 2671,
      "arm": 2672,
      "behind": 2673,
      "aper": 2674,
      "party": 2675,
      "added": 2676,
      "fa": 2677,
      "hard": 2678,
      "least": 2679,
      "rought": 2680,
      "condom": 2681,
      "bc": 2682,
      "enced": 2683,
      "ctor": 2684,
      "fran": 2685,
      "bes": 2686,
      "hall": 2687,
      "sele": 2688,
      "wife": 2689,
      "utes": 2690,
      "study": 2691,
      "territ": 2692,
      "emp": 2693,
      "bly": 2694,
      "saf": 2695,
      "termin": 2696,
      "goal": 2697,
      "followed": 2698,
      "fleet": 2699,
      "killed": 2700,
      "months": 2701,
      "pitch": 2702,
      "sour": 2703,
      "attr": 2704,
      "ota": 2705,
      "consist": 2706,
      "ox": 2707,
      "leading": 2708,
      "squad": 2709,
      "recogn": 2710,
      "ches": 2711,
      "individ": 2712,
      "section": 2713,
      "awards": 2714,
      "commit": 2715,
      "type": 2716,
      "medi": 2717,
      "points": 2718,
      "friend": 2719,
      "david": 2720,
      "iss": 2721,
      "chest": 2722,
      "birds": 2723,
      "ues": 2724,
      "estim": 2725,
      "features": 2726,
      "mun": 2727,
      "pie": 2728,
      "opened": 2729,
      "35": 2730,
      "comb": 2731,
      "flight": 2732,
      "aircraft": 2733,
      "han": 2734,
      "rid": 2735,
      "stage": 2736,
      "uses": 2737,
      "france": 2738,
      "bon": 2739,
      "nine": 2740,
      "bridge": 2741,
      "spir": 2742,
      "assist": 2743,
      "2003": 2744,
      "hit": 2745,
      "odes": 2746,
      "big": 2747,
      "ff": 2748,
      "accept": 2749,
      "tempor": 2750,
      "here": 2751,
      "lack": 2752,
      "thre": 2753,
      "forced": 2754,
      "soon": 2755,
      "2015": 2756,
      "gi": 2757,
      "ering": 2758,
      "subsequ": 2759,
      "archae": 2760,
      "championship": 2761,
      "gir": 2762,
      "ible": 2763,
      "rank": 2764,
      "rose": 2765,
      "decided": 2766,
      "either": 2767,
      "mary": 2768,
      "mater": 2769,
      "separ": 2770,
      "proble": 2771,
      "forms": 2772,
      "recording": 2773,
      "transport": 2774,
      "mph": 2775,
      "stop": 2776,
      "sho": 2777,
      "parli": 2778,
      "osaur": 2779,
      "towards": 2780,
      "writer": 2781,
      "operations": 2782,
      "graphy": 2783,
      "past": 2784,
      "mountain": 2785,
      "da": 2786,
      "native": 2787,
      "race": 2788,
      "clo": 2789,
      "ought": 2790,
      "flor": 2791,
      "operation": 2792,
      "ane": 2793,
      "icated": 2794,
      "ids": 2795,
      "respect": 2796,
      "finished": 2797,
      "elements": 2798,
      "fund": 2799,
      "ker": 2800,
      "infan": 2801,
      "boy": 2802,
      "scre": 2803,
      "claimed": 2804,
      "fell": 2805,
      "mel": 2806,
      "pi": 2807,
      "records": 2808,
      "magazine": 2809,
      "commercial": 2810,
      "31": 2811,
      "ls": 2812,
      "tell": 2813,
      "generally": 2814,
      "carey": 2815,
      "believed": 2816,
      "ith": 2817,
      "tail": 2818,
      "compet": 2819,
      "appearance": 2820,
      "flood": 2821,
      "parliament": 2822,
      "acc": 2823,
      "meas": 2824,
      "council": 2825,
      "compl": 2826,
      "female": 2827,
      "mex": 2828,
      "ples": 2829,
      "example": 2830,
      "syn": 2831,
      "midd": 2832,
      "launch": 2833,
      "2nd": 2834,
      "regard": 2835,
      "certain": 2836,
      "manager": 2837,
      "infantry": 2838,
      "80": 2839,
      "date": 2840,
      "ks": 2841,
      "ky": 2842,
      "ply": 2843,
      "help": 2844,
      "business": 2845,
      "ael": 2846,
      "jam": 2847,
      "pred": 2848,
      "yards": 2849,
      "educ": 2850,
      "igned": 2851,
      "iction": 2852,
      "weeks": 2853,
      "70": 2854,
      "inn": 2855,
      "space": 2856,
      "rather": 2857,
      "treat": 2858,
      "robert": 2859,
      "european": 2860,
      "industr": 2861,
      "ata": 2862,
      "concl": 2863,
      "tex": 2864,
      "exe": 2865,
      "outside": 2866,
      "lands": 2867,
      "directed": 2868,
      "ready": 2869,
      "federer": 2870,
      "jew": 2871,
      "brought": 2872,
      "fish": 2873,
      "ana": 2874,
      "depression": 2875,
      "employ": 2876,
      "standing": 2877,
      "approach": 2878,
      "term": 2879,
      "blue": 2880,
      "achie": 2881,
      "working": 2882,
      "bio": 2883,
      "pac": 2884,
      "lear": 2885,
      "defe": 2886,
      "oliv": 2887,
      "condu": 2888,
      "ceed": 2889,
      "social": 2890,
      "invest": 2891,
      "wales": 2892,
      "sam": 2893,
      "thus": 2894,
      "teach": 2895,
      "earlier": 2896,
      "pot": 2897,
      "pair": 2898,
      "parts": 2899,
      "featured": 2900,
      "cycl": 2901,
      "techn": 2902,
      "cam": 2903,
      "tou": 2904,
      "redu": 2905,
      "priv": 2906,
      "horse": 2907,
      "victory": 2908,
      "ators": 2909,
      "stay": 2910,
      "pract": 2911,
      "sus": 2912,
      "impro": 2913,
      "counter": 2914,
      "opening": 2915,
      "summer": 2916,
      "radio": 2917,
      "lad": 2918,
      "mur": 2919,
      "spo": 2920,
      "imes": 2921,
      "netw": 2922,
      "muse": 2923,
      "wheel": 2924,
      "bank": 2925,
      "ris": 2926,
      "ories": 2927,
      "jordan": 2928,
      "labor": 2929,
      "45": 2930,
      "lie": 2931,
      "deal": 2932,
      "quest": 2933,
      "contract": 2934,
      "provided": 2935,
      "association": 2936,
      "wanted": 2937,
      "george": 2938,
      "jud": 2939,
      "reason": 2940,
      "ald": 2941,
      "allowed": 2942,
      "village": 2943,
      "atlantic": 2944,
      "leng": 2945,
      "thom": 2946,
      "reve": 2947,
      "secret": 2948,
      "quarter": 2949,
      "nel": 2950,
      "ential": 2951,
      "plann": 2952,
      "istic": 2953,
      "crew": 2954,
      "network": 2955,
      "particularly": 2956,
      "ung": 2957,
      "winds": 2958,
      "troops": 2959,
      "museum": 2960,
      "mult": 2961,
      "rus": 2962,
      "tee": 2963,
      "arts": 2964,
      "2014": 2965,
      "minor": 2966,
      "worked": 2967,
      "christian": 2968,
      "initially": 2969,
      "instit": 2970,
      "ka": 2971,
      "ties": 2972,
      "los": 2973,
      "complet": 2974,
      "evidence": 2975,
      "office": 2976,
      "middle": 2977,
      "ient": 2978,
      "kil": 2979,
      "alter": 2980,
      "largest": 2981,
      "38": 2982,
      "hi": 2983,
      "rat": 2984,
      "joined": 2985,
      "issue": 2986,
      "stren": 2987,
      "chan": 2988,
      "aving": 2989,
      "19th": 2990,
      "creek": 2991,
      "viol": 2992,
      "shap": 2993,
      "mont": 2994,
      "above": 2995,
      "bell": 2996,
      "pain": 2997,
      "thod": 2998,
      "erous": 2999,
      "prob": 3000,
      "500": 3001,
      "acad": 3002,
      "conf": 3003,
      "emy": 3004,
      "critical": 3005,
      "material": 3006,
      "bul": 3007,
      "shot": 3008,
      "ister": 3009,
      "feel": 3010,
      "liter": 3011,
      "florida": 3012,
      "econ": 3013,
      "iers": 3014,
      "mart": 3015,
      "cts": 3016,
      "prior": 3017,
      "saying": 3018,
      "difficult": 3019,
      "econom": 3020,
      "185": 3021,
      "brother": 3022,
      "host": 3023,
      "paul": 3024,
      "streng": 3025,
      "hours": 3026,
      "mir": 3027,
      "anal": 3028,
      "ify": 3029,
      "captain": 3030,
      "somet": 3031,
      "script": 3032,
      "drop": 3033,
      "fut": 3034,
      "vest": 3035,
      "watch": 3036,
      "quick": 3037,
      "regiment": 3038,
      "sky": 3039,
      "complete": 3040,
      "length": 3041,
      "ds": 3042,
      "taking": 3043,
      "whom": 3044,
      "queen": 3045,
      "fru": 3046,
      "missou": 3047,
      "natural": 3048,
      "bish": 3049,
      "hest": 3050,
      "reception": 3051,
      "missouri": 3052,
      "wr": 3053,
      "seem": 3054,
      "avail": 3055,
      "poor": 3056,
      "pool": 3057,
      "2001": 3058,
      "food": 3059,
      "188": 3060,
      "police": 3061,
      "society": 3062,
      "suffer": 3063,
      "hig": 3064,
      "hous": 3065,
      "ington": 3066,
      "oney": 3067,
      "discus": 3068,
      "designed": 3069,
      "community": 3070,
      "going": 3071,
      "iii": 3072,
      "previously": 3073,
      "ention": 3074,
      "box": 3075,
      "goals": 3076,
      "praised": 3077,
      "jin": 3078,
      "argu": 3079,
      "assem": 3080,
      "ita": 3081,
      "coach": 3082,
      "hosp": 3083,
      "doc": 3084,
      "units": 3085,
      "angel": 3086,
      "remains": 3087,
      "structure": 3088,
      "michael": 3089,
      "recent": 3090,
      "amoun": 3091,
      "plat": 3092,
      "capital": 3093,
      "must": 3094,
      "appointed": 3095,
      "ded": 3096,
      "pay": 3097,
      "indian": 3098,
      "towns": 3099,
      "increased": 3100,
      "aut": 3101,
      "hib": 3102,
      "jer": 3103,
      "mas": 3104,
      "theat": 3105,
      "actions": 3106,
      "colum": 3107,
      "anna": 3108,
      "media": 3109,
      "green": 3110,
      "travel": 3111,
      "execut": 3112,
      "sec": 3113,
      "dead": 3114,
      "iff": 3115,
      "bra": 3116,
      "interview": 3117,
      "36": 3118,
      "dig": 3119,
      "egy": 3120,
      "lam": 3121,
      "pressed": 3122,
      "forest": 3123,
      "background": 3124,
      "commander": 3125,
      "woman": 3126,
      "relationship": 3127,
      "studio": 3128,
      "dol": 3129,
      "hair": 3130,
      "lor": 3131,
      "uel": 3132,
      "replaced": 3133,
      "proper": 3134,
      "active": 3135,
      "passed": 3136,
      "bom": 3137,
      "lock": 3138,
      "occup": 3139,
      "cially": 3140,
      "richard": 3141,
      "situ": 3142,
      "90": 3143,
      "bound": 3144,
      "ration": 3145,
      "ctive": 3146,
      "comes": 3147,
      "ize": 3148,
      "maintain": 3149,
      "block": 3150,
      "navy": 3151,
      "industry": 3152,
      "75": 3153,
      "nation": 3154,
      "sar": 3155,
      "tolo": 3156,
      "plot": 3157,
      "cost": 3158,
      "186": 3159,
      "carol": 3160,
      "approxim": 3161,
      "establish": 3162,
      "mixed": 3163,
      "fit": 3164,
      "lot": 3165,
      "iving": 3166,
      "signed": 3167,
      "habit": 3168,
      "religious": 3169,
      "estimated": 3170,
      "give": 3171,
      "mort": 3172,
      "reviews": 3173,
      "college": 3174,
      "canada": 3175,
      "henry": 3176,
      "highest": 3177,
      "lay": 3178,
      "rac": 3179,
      "usually": 3180,
      "moving": 3181,
      "except": 3182,
      "introduced": 3183,
      "beginning": 3184,
      "cad": 3185,
      "flow": 3186,
      "lord": 3187,
      "arab": 3188,
      "aries": 3189,
      "lyr": 3190,
      "premi": 3191,
      "stories": 3192,
      "kan": 3193,
      "kel": 3194,
      "told": 3195,
      "usion": 3196,
      "mos": 3197,
      "pole": 3198,
      "oldham": 3199,
      "observ": 3200,
      "limited": 3201,
      "involved": 3202,
      "available": 3203,
      "cav": 3204,
      "scene": 3205,
      "japanese": 3206,
      "average": 3207,
      "touch": 3208,
      "gree": 3209,
      "greg": 3210,
      "ored": 3211,
      "vin": 3212,
      "ville": 3213,
      "training": 3214,
      "phys": 3215,
      "joy": 3216,
      "suggested": 3217,
      "cred": 3218,
      "nh": 3219,
      "pit": 3220,
      "increasing": 3221,
      "link": 3222,
      "oly": 3223,
      "itself": 3224,
      "immedi": 3225,
      "transfer": 3226,
      "turned": 3227,
      "likely": 3228,
      "sometimes": 3229,
      "today": 3230,
      "forward": 3231,
      "irish": 3232,
      "friends": 3233,
      "olivier": 3234,
      "size": 3235,
      "india": 3236,
      "athlet": 3237,
      "stein": 3238,
      "hap": 3239,
      "pul": 3240,
      "sn": 3241,
      "tery": 3242,
      "text": 3243,
      "zeal": 3244,
      "respond": 3245,
      "responsi": 3246,
      "mexico": 3247,
      "yer": 3248,
      "revol": 3249,
      "sey": 3250,
      "airport": 3251,
      "additional": 3252,
      "egypt": 3253,
      "lake": 3254,
      "sor": 3255,
      "ened": 3256,
      "wid": 3257,
      "corpor": 3258,
      "intens": 3259,
      "changes": 3260,
      "language": 3261,
      "oid": 3262,
      "defin": 3263,
      "notes": 3264,
      "whose": 3265,
      "nearly": 3266,
      "fifth": 3267,
      "object": 3268,
      "temporary": 3269,
      "thomas": 3270,
      "bad": 3271,
      "bass": 3272,
      "dut": 3273,
      "lou": 3274,
      "male": 3275,
      "onic": 3276,
      "arily": 3277,
      "achel": 3278,
      "shows": 3279,
      "approximately": 3280,
      "haw": 3281,
      "already": 3282,
      "icted": 3283,
      "nest": 3284,
      "peter": 3285,
      "surround": 3286,
      "marked": 3287,
      "damaged": 3288,
      "asked": 3289,
      "ius": 3290,
      "lap": 3291,
      "rd": 3292,
      "sis": 3293,
      "apo": 3294,
      "occas": 3295,
      "prevent": 3296,
      "related": 3297,
      "cathe": 3298,
      "britain": 3299,
      "winning": 3300,
      "broadcast": 3301,
      "cali": 3302,
      "daugh": 3303,
      "aled": 3304,
      "agon": 3305,
      "appl": 3306,
      "tries": 3307,
      "subst": 3308,
      "particip": 3309,
      "probably": 3310,
      "cathedr": 3311,
      "fest": 3312,
      "might": 3313,
      "zz": 3314,
      "ander": 3315,
      "iter": 3316,
      "sym": 3317,
      "listed": 3318,
      "espe": 3319,
      "une": 3320,
      "ishing": 3321,
      "iple": 3322,
      "news": 3323,
      "visit": 3324,
      "better": 3325,
      "cath": 3326,
      "atory": 3327,
      "administ": 3328,
      "exam": 3329,
      "twent": 3330,
      "students": 3331,
      "pacific": 3332,
      "ta": 3333,
      "wing": 3334,
      "enon": 3335,
      "ication": 3336,
      "pected": 3337,
      "erson": 3338,
      "ateg": 3339,
      "running": 3340,
      "breed": 3341,
      "hus": 3342,
      "oce": 3343,
      "cele": 3344,
      "overall": 3345,
      "inese": 3346,
      "birth": 3347,
      "especially": 3348,
      "enough": 3349,
      "ilities": 3350,
      "deep": 3351,
      "imp": 3352,
      "aker": 3353,
      "audi": 3354,
      "upper": 3355,
      "ordered": 3356,
      "1st": 3357,
      "bing": 3358,
      "failed": 3359,
      "slow": 3360,
      "throw": 3361,
      "ros": 3362,
      "chinese": 3363,
      "comed": 3364,
      "reser": 3365,
      "ody": 3366,
      "musical": 3367,
      "zealand": 3368,
      "48": 3369,
      "gul": 3370,
      "hip": 3371,
      "kh": 3372,
      "mr": 3373,
      "ification": 3374,
      "books": 3375,
      "mounted": 3376,
      "science": 3377,
      "wheeler": 3378,
      "bud": 3379,
      "gs": 3380,
      "ll": 3381,
      "concept": 3382,
      "traf": 3383,
      "mention": 3384,
      "spent": 3385,
      "2002": 3386,
      "fully": 3387,
      "threat": 3388,
      "33": 3389,
      "fail": 3390,
      "master": 3391,
      "rica": 3392,
      "staff": 3393,
      "aring": 3394,
      "market": 3395,
      "positions": 3396,
      "future": 3397,
      "saint": 3398,
      "wel": 3399,
      "asy": 3400,
      "aud": 3401,
      "includes": 3402,
      "remaining": 3403,
      "virgin": 3404,
      "arrived": 3405,
      "department": 3406,
      "education": 3407,
      "39": 3408,
      "cm": 3409,
      "ency": 3410,
      "perform": 3411,
      "larger": 3412,
      "tons": 3413,
      "sett": 3414,
      "quarters": 3415,
      "canadian": 3416,
      "cathedral": 3417,
      "cathol": 3418,
      "47": 3419,
      "mic": 3420,
      "wards": 3421,
      "ites": 3422,
      "grant": 3423,
      "icket": 3424,
      "decision": 3425,
      "bot": 3426,
      "frequ": 3427,
      "ko": 3428,
      "amed": 3429,
      "guard": 3430,
      "187": 3431,
      "required": 3432,
      "latter": 3433,
      "rif": 3434,
      "rup": 3435,
      "rhy": 3436,
      "keep": 3437,
      "location": 3438,
      "voice": 3439,
      "changed": 3440,
      "favor": 3441,
      "entolo": 3442,
      "model": 3443,
      "africa": 3444,
      "riage": 3445,
      "2000": 3446,
      "color": 3447,
      "ference": 3448,
      "schol": 3449,
      "miss": 3450,
      "distri": 3451,
      "nature": 3452,
      "scientolo": 3453,
      "response": 3454,
      "olymp": 3455,
      "orial": 3456,
      "contribut": 3457,
      "culture": 3458,
      "professional": 3459,
      "dum": 3460,
      "money": 3461,
      "ises": 3462,
      "ami": 3463,
      "health": 3464,
      "ifa": 3465,
      "centre": 3466,
      "feature": 3467,
      "defeated": 3468,
      "bid": 3469,
      "nations": 3470,
      "acted": 3471,
      "span": 3472,
      "fox": 3473,
      "films": 3474,
      "distr": 3475,
      "groups": 3476,
      "score": 3477,
      "rachel": 3478,
      "uan": 3479,
      "scott": 3480,
      "positive": 3481,
      "idea": 3482,
      "supported": 3483,
      "constructed": 3484,
      "captured": 3485,
      "territory": 3486,
      "gent": 3487,
      "mou": 3488,
      "anch": 3489,
      "beat": 3490,
      "clos": 3491,
      "assigned": 3492,
      "pressure": 3493,
      "syl": 3494,
      "billboard": 3495,
      "living": 3496,
      "mom": 3497,
      "inal": 3498,
      "acqu": 3499,
      "access": 3500,
      "becoming": 3501,
      "demon": 3502,
      "pose": 3503,
      "exten": 3504,
      "finally": 3505,
      "frank": 3506,
      "squadron": 3507,
      "uals": 3508,
      "think": 3509,
      "chief": 3510,
      "demo": 3511,
      "compe": 3512,
      "ultim": 3513,
      "discovered": 3514,
      "drum": 3515,
      "temper": 3516,
      "charles": 3517,
      "tower": 3518,
      "surface": 3519,
      "agreed": 3520,
      "anth": 3521,
      "always": 3522,
      "trade": 3523,
      "shown": 3524,
      "provide": 3525,
      "protest": 3526,
      "penn": 3527,
      "smaller": 3528,
      "experience": 3529,
      "bility": 3530,
      "fill": 3531,
      "scor": 3532,
      "tax": 3533,
      "actor": 3534,
      "plays": 3535,
      "temple": 3536,
      "1995": 3537,
      "private": 3538,
      "makes": 3539,
      "pian": 3540,
      "paren": 3541,
      "rate": 3542,
      "inj": 3543,
      "uments": 3544,
      "exper": 3545,
      "minutes": 3546,
      "mith": 3547,
      "selves": 3548,
      "subject": 3549,
      "domin": 3550,
      "shortly": 3551,
      "square": 3552,
      "pon": 3553,
      "print": 3554,
      "hood": 3555,
      "dark": 3556,
      "anci": 3557,
      "arrang": 3558,
      "andy": 3559,
      "castle": 3560,
      "personal": 3561,
      "subsequently": 3562,
      "37": 3563,
      "dj": 3564,
      "kick": 3565,
      "rare": 3566,
      "unit": 3567,
      "writers": 3568,
      "collection": 3569,
      "effects": 3570,
      "ocean": 3571,
      "distribut": 3572,
      "ios": 3573,
      "ases": 3574,
      "cting": 3575,
      "iding": 3576,
      "emer": 3577,
      "intended": 3578,
      "bishop": 3579,
      "cat": 3580,
      "din": 3581,
      "gins": 3582,
      "defeat": 3583,
      "greater": 3584,
      "constit": 3585,
      "celebr": 3586,
      "scientology": 3587,
      "pil": 3588,
      "wa": 3589,
      "iron": 3590,
      "percent": 3591,
      "indic": 3592,
      "mostly": 3593,
      "rael": 3594,
      "teams": 3595,
      "course": 3596,
      "gods": 3597,
      "problems": 3598,
      "itz": 3599,
      "adap": 3600,
      "idents": 3601,
      "numbers": 3602,
      "haifa": 3603,
      "largely": 3604,
      "machine": 3605,
      "aer": 3606,
      "ror": 3607,
      "va": 3608,
      "via": 3609,
      "iva": 3610,
      "uded": 3611,
      "northeast": 3612,
      "themselves": 3613,
      "metres": 3614,
      "valley": 3615,
      "referred": 3616,
      "constant": 3617,
      "primary": 3618,
      "ranked": 3619,
      "califor": 3620,
      "yet": 3621,
      "ener": 3622,
      "tray": 3623,
      "method": 3624,
      "whole": 3625,
      "create": 3626,
      "2016": 3627,
      "leader": 3628,
      "croat": 3629,
      "companies": 3630,
      "tic": 3631,
      "xenon": 3632,
      "edge": 3633,
      "chic": 3634,
      "entered": 3635,
      "unk": 3636,
      "fighting": 3637,
      "traffic": 3638,
      "49": 3639,
      "cause": 3640,
      "fant": 3641,
      "gall": 3642,
      "tu": 3643,
      "information": 3644,
      "ump": 3645,
      "bled": 3646,
      "portu": 3647,
      "closed": 3648,
      "mig": 3649,
      "takes": 3650,
      "israel": 3651,
      "worth": 3652,
      "contains": 3653,
      "jected": 3654,
      "baby": 3655,
      "adop": 3656,
      "aging": 3657,
      "spring": 3658,
      "scul": 3659,
      "settle": 3660,
      "headquarters": 3661,
      "majority": 3662,
      "morning": 3663,
      "greatest": 3664,
      "brief": 3665,
      "equip": 3666,
      "bowl": 3667,
      "lyrics": 3668,
      "leaving": 3669,
      "bring": 3670,
      "discover": 3671,
      "1999": 3672,
      "studies": 3673,
      "starting": 3674,
      "appears": 3675,
      "lis": 3676,
      "thick": 3677,
      "insp": 3678,
      "escap": 3679,
      "load": 3680,
      "married": 3681,
      "election": 3682,
      "officers": 3683,
      "galvest": 3684,
      "whether": 3685,
      "journal": 3686,
      "osaurus": 3687,
      "screen": 3688,
      "galveston": 3689,
      "fans": 3690,
      "tourn": 3691,
      "secut": 3692,
      "heart": 3693,
      "1950": 3694,
      "shell": 3695,
      "aust": 3696,
      "brad": 3697,
      "prison": 3698,
      "competition": 3699,
      "jewish": 3700,
      "lady": 3701,
      "step": 3702,
      "mole": 3703,
      "newsp": 3704,
      "deliv": 3705,
      "fast": 3706,
      "beach": 3707,
      "determin": 3708,
      "confl": 3709,
      "neg": 3710,
      "ume": 3711,
      "poly": 3712,
      "runs": 3713,
      "aught": 3714,
      "concert": 3715,
      "fred": 3716,
      "theme": 3717,
      "anz": 3718,
      "atops": 3719,
      "image": 3720,
      "plans": 3721,
      "proposed": 3722,
      "ements": 3723,
      "ously": 3724,
      "focus": 3725,
      "vey": 3726,
      "episodes": 3727,
      "standard": 3728,
      "stream": 3729,
      "soldiers": 3730,
      "liver": 3731,
      "iation": 3732,
      "lived": 3733,
      "mast": 3734,
      "mind": 3735,
      "rison": 3736,
      "your": 3737,
      "republic": 3738,
      "shire": 3739,
      "artist": 3740,
      "entertain": 3741,
      "influence": 3742,
      "meaning": 3743,
      "independent": 3744,
      "launched": 3745,
      "gam": 3746,
      "refle": 3747,
      "true": 3748,
      "movement": 3749,
      "singles": 3750,
      "tracks": 3751,
      "increase": 3752,
      "blood": 3753,
      "mitted": 3754,
      "dream": 3755,
      "traditional": 3756,
      "amount": 3757,
      "california": 3758,
      "vot": 3759,
      "zhou": 3760,
      "plant": 3761,
      "illery": 3762,
      "acting": 3763,
      "compared": 3764,
      "speed": 3765,
      "minute": 3766,
      "consider": 3767,
      "girl": 3768,
      "quickly": 3769,
      "catholic": 3770,
      "76": 3771,
      "cé": 3772,
      "pag": 3773,
      "things": 3774,
      "ands": 3775,
      "andon": 3776,
      "artillery": 3777,
      "meant": 3778,
      "sixth": 3779,
      "trees": 3780,
      "onym": 3781,
      "villa": 3782,
      "double": 3783,
      "occurred": 3784,
      "daughter": 3785,
      "chicago": 3786,
      "cit": 3787,
      "done": 3788,
      "wat": 3789,
      "inside": 3790,
      "leave": 3791,
      "chem": 3792,
      "affe": 3793,
      "corps": 3794,
      "legal": 3795,
      "attacks": 3796,
      "nucle": 3797,
      "chester": 3798,
      "piece": 3799,
      "hospital": 3800,
      "revolution": 3801,
      "kind": 3802,
      "mes": 3803,
      "xon": 3804,
      "onto": 3805,
      "uni": 3806,
      "spac": 3807,
      "serious": 3808,
      "relat": 3809,
      "services": 3810,
      "governor": 3811,
      "request": 3812,
      "latin": 3813,
      "victor": 3814,
      "destroyed": 3815,
      "condoms": 3816,
      "investig": 3817,
      "bury": 3818,
      "fow": 3819,
      "kr": 3820,
      "kin": 3821,
      "uter": 3822,
      "rein": 3823,
      "alice": 3824,
      "chann": 3825,
      "contemporary": 3826,
      "sched": 3827,
      "archite": 3828,
      "longer": 3829,
      "bodies": 3830,
      "schools": 3831,
      "cruis": 3832,
      "circ": 3833,
      "400": 3834,
      "gian": 3835,
      "hun": 3836,
      "hund": 3837,
      "path": 3838,
      "wild": 3839,
      "trial": 3840,
      "scot": 3841,
      "carried": 3842,
      "complex": 3843,
      "initial": 3844,
      "awarded": 3845,
      "scenes": 3846,
      "safe": 3847,
      "source": 3848,
      "hundred": 3849,
      "mile": 3850,
      "ners": 3851,
      "pup": 3852,
      "purch": 3853,
      "andre": 3854,
      "deb": 3855,
      "ulated": 3856,
      "african": 3857,
      "gue": 3858,
      "weight": 3859,
      "something": 3860,
      "proteins": 3861,
      "associated": 3862,
      "rapid": 3863,
      "cyclone": 3864,
      "district": 3865,
      "32": 3866,
      "3rd": 3867,
      "bour": 3868,
      "gas": 3869,
      "ost": 3870,
      "beer": 3871,
      "otto": 3872,
      "ellow": 3873,
      "marriage": 3874,
      "finan": 3875,
      "1998": 3876,
      "buildings": 3877,
      "issued": 3878,
      "conducted": 3879,
      "lb": 3880,
      "alkan": 3881,
      "wash": 3882,
      "rome": 3883,
      "annual": 3884,
      "specific": 3885,
      "polish": 3886,
      "burns": 3887,
      "status": 3888,
      "twenty": 3889,
      "ancient": 3890,
      "ging": 3891,
      "sav": 3892,
      "wis": 3893,
      "chall": 3894,
      "adel": 3895,
      "necess": 3896,
      "1930": 3897,
      "20th": 3898,
      "spect": 3899,
      "defense": 3900,
      "minister": 3901,
      "empire": 3902,
      "husband": 3903,
      "44": 3904,
      "fair": 3905,
      "scr": 3906,
      "zo": 3907,
      "edit": 3908,
      "stad": 3909,
      "ales": 3910,
      "unable": 3911,
      "conserv": 3912,
      "conference": 3913,
      "oda": 3914,
      "1993": 3915,
      "albums": 3916,
      "commented": 3917,
      "inspired": 3918,
      "len": 3919,
      "tay": 3920,
      "ón": 3921,
      "sets": 3922,
      "suit": 3923,
      "prince": 3924,
      "possess": 3925,
      "numerous": 3926,
      "nixon": 3927,
      "somer": 3928,
      "management": 3929,
      "individual": 3930,
      "liverpool": 3931,
      "ding": 3932,
      "pick": 3933,
      "esh": 3934,
      "expected": 3935,
      "elled": 3936,
      "producer": 3937,
      "advant": 3938,
      "giving": 3939,
      "scient": 3940,
      "photo": 3941,
      "glo": 3942,
      "istics": 3943,
      "bery": 3944,
      "committee": 3945,
      "texas": 3946,
      "dollar": 3947,
      "dail": 3948,
      "terms": 3949,
      "earned": 3950,
      "portion": 3951,
      "polic": 3952,
      "advent": 3953,
      "sports": 3954,
      "looking": 3955,
      "nuclear": 3956,
      "mosley": 3957,
      "somerset": 3958,
      "300": 3959,
      "anas": 3960,
      "begins": 3961,
      "combat": 3962,
      "perfect": 3963,
      "join": 3964,
      "historical": 3965,
      "figure": 3966,
      "planned": 3967,
      "piano": 3968,
      "daily": 3969,
      "cand": 3970,
      "swe": 3971,
      "ti": 3972,
      "winter": 3973,
      "yellow": 3974,
      "thunder": 3975,
      "tri": 3976,
      "creation": 3977,
      "1996": 3978,
      "portray": 3979,
      "directly": 3980,
      "advance": 3981,
      "busch": 3982,
      "variety": 3983,
      "document": 3984,
      "wound": 3985,
      "enn": 3986,
      "withdraw": 3987,
      "core": 3988,
      "prep": 3989,
      "metal": 3990,
      "organization": 3991,
      "christmas": 3992,
      "performances": 3993,
      "activity": 3994,
      "immediately": 3995,
      "cel": 3996,
      "gard": 3997,
      "pict": 3998,
      "paper": 3999,
      "trib": 4000,
      "sons": 4001,
      "border": 4002,
      "places": 4003,
      "sequence": 4004,
      "spanish": 4005,
      "taylor": 4006,
      "dated": 4007,
      "spl": 4008,
      "armed": 4009,
      "forts": 4010,
      "abandon": 4011,
      "offensive": 4012,
      "helped": 4013,
      "allowing": 4014,
      "fowler": 4015,
      "sac": 4016,
      "slight": 4017,
      "thir": 4018,
      "genus": 4019,
      "casual": 4020,
      "suffered": 4021,
      "assembly": 4022,
      "peace": 4023,
      "progress": 4024,
      "presence": 4025,
      "contro": 4026,
      "folk": 4027,
      "continue": 4028,
      "nearby": 4029,
      "rule": 4030,
      "types": 4031,
      "fruit": 4032,
      "34": 4033,
      "really": 4034,
      "detail": 4035,
      "imag": 4036,
      "clim": 4037,
      "berg": 4038,
      "paris": 4039,
      "raised": 4040,
      "presented": 4041,
      "jane": 4042,
      "advan": 4043,
      "federal": 4044,
      "cultural": 4045,
      "vania": 4046,
      "target": 4047,
      "athen": 4048,
      "bond": 4049,
      "die": 4050,
      "sand": 4051,
      "rev": 4052,
      "composed": 4053,
      "share": 4054,
      "meyer": 4055,
      "weap": 4056,
      "maxim": 4057,
      "extended": 4058,
      "figures": 4059,
      "vocals": 4060,
      "jim": 4061,
      "rick": 4062,
      "aly": 4063,
      "anded": 4064,
      "itude": 4065,
      "ada": 4066,
      "confir": 4067,
      "antim": 4068,
      "boat": 4069,
      "famil": 4070,
      "attempts": 4071,
      "houses": 4072,
      "carolina": 4073,
      "virginia": 4074,
      "mouth": 4075,
      "pennsyl": 4076,
      "cin": 4077,
      "dar": 4078,
      "dress": 4079,
      "fiction": 4080,
      "kar": 4081,
      "ya": 4082,
      "china": 4083,
      "anta": 4084,
      "anger": 4085,
      "below": 4086,
      "eye": 4087,
      "smith": 4088,
      "aspect": 4089,
      "rob": 4090,
      "ado": 4091,
      "sumed": 4092,
      "dise": 4093,
      "phy": 4094,
      "relief": 4095,
      "singer": 4096,
      "aired": 4097,
      "appearances": 4098,
      "officer": 4099,
      "vocal": 4100,
      "selected": 4101,
      "analys": 4102,
      "architect": 4103,
      "happ": 4104,
      "nico": 4105,
      "sin": 4106,
      "sir": 4107,
      "wy": 4108,
      "iny": 4109,
      "oncé": 4110,
      "essa": 4111,
      "acts": 4112,
      "marine": 4113,
      "athan": 4114,
      "higher": 4115,
      "1997": 4116,
      "distin": 4117,
      "promin": 4118,
      "issues": 4119,
      "sexual": 4120,
      "beyoncé": 4121,
      "russ": 4122,
      "strength": 4123,
      "ottoman": 4124,
      "hic": 4125,
      "hour": 4126,
      "ix": 4127,
      "ki": 4128,
      "kak": 4129,
      "rush": 4130,
      "wear": 4131,
      "account": 4132,
      "uries": 4133,
      "opin": 4134,
      "emper": 4135,
      "extre": 4136,
      "ipal": 4137,
      "assa": 4138,
      "nov": 4139,
      "countries": 4140,
      "miami": 4141,
      "germany": 4142,
      "needed": 4143,
      "shoot": 4144,
      "oh": 4145,
      "rh": 4146,
      "aware": 4147,
      "jose": 4148,
      "highly": 4149,
      "northwest": 4150,
      "protein": 4151,
      "attacked": 4152,
      "mount": 4153,
      "murder": 4154,
      "question": 4155,
      "situation": 4156,
      "fat": 4157,
      "nick": 4158,
      "rect": 4159,
      "neu": 4160,
      "bob": 4161,
      "owned": 4162,
      "render": 4163,
      "southeast": 4164,
      "distance": 4165,
      "cougar": 4166,
      "words": 4167,
      "theatre": 4168,
      "responsible": 4169,
      "festival": 4170,
      "comedy": 4171,
      "5th": 4172,
      "6th": 4173,
      "eth": 4174,
      "pun": 4175,
      "offered": 4176,
      "mium": 4177,
      "silver": 4178,
      "cadmium": 4179,
      "pennsylvania": 4180,
      "cis": 4181,
      "hanna": 4182,
      "tel": 4183,
      "removed": 4184,
      "edition": 4185,
      "ils": 4186,
      "entr": 4187,
      "movie": 4188,
      "qual": 4189,
      "finals": 4190,
      "foreign": 4191,
      "150": 4192,
      "historic": 4193,
      "jackson": 4194,
      "honor": 4195,
      "academy": 4196,
      "widely": 4197,
      "energy": 4198,
      "dro": 4199,
      "wit": 4200,
      "thous": 4201,
      "ert": 4202,
      "rot": 4203,
      "grass": 4204,
      "means": 4205,
      "cert": 4206,
      "horn": 4207,
      "voy": 4208,
      "levels": 4209,
      "copies": 4210,
      "peaked": 4211,
      "scoring": 4212,
      "parents": 4213,
      "scotland": 4214,
      "dv": 4215,
      "sister": 4216,
      "secur": 4217,
      "olf": 4218,
      "opport": 4219,
      "branch": 4220,
      "mond": 4221,
      "1991": 4222,
      "calling": 4223,
      "lane": 4224,
      "chris": 4225,
      "powerful": 4226,
      "hands": 4227,
      "rights": 4228,
      "attempted": 4229,
      "window": 4230,
      "typically": 4231,
      "meeting": 4232,
      "combined": 4233,
      "respectively": 4234,
      "opportun": 4235,
      "46": 4236,
      "lers": 4237,
      "mess": 4238,
      "sa": 4239,
      "envir": 4240,
      "alex": 4241,
      "verse": 4242,
      "quality": 4243,
      "raid": 4244,
      "themes": 4245,
      "drew": 4246,
      "touchdown": 4247,
      "stadium": 4248,
      "cere": 4249,
      "sip": 4250,
      "wave": 4251,
      "stock": 4252,
      "anderson": 4253,
      "adam": 4254,
      "elle": 4255,
      "trail": 4256,
      "ender": 4257,
      "observed": 4258,
      "describes": 4259,
      "islands": 4260,
      "patter": 4261,
      "matches": 4262,
      "activities": 4263,
      "candid": 4264,
      "tun": 4265,
      "instr": 4266,
      "reign": 4267,
      "enjoy": 4268,
      "isation": 4269,
      "itation": 4270,
      "tric": 4271,
      "mental": 4272,
      "vehic": 4273,
      "intell": 4274,
      "preser": 4275,
      "pret": 4276,
      "offer": 4277,
      "izing": 4278,
      "1992": 4279,
      "ledge": 4280,
      "missed": 4281,
      "helm": 4282,
      "chronic": 4283,
      "heavily": 4284,
      "sales": 4285,
      "completely": 4286,
      "braathen": 4287,
      "audience": 4288,
      "security": 4289,
      "jac": 4290,
      "jul": 4291,
      "repe": 4292,
      "behav": 4293,
      "mob": 4294,
      "sole": 4295,
      "managed": 4296,
      "vised": 4297,
      "1994": 4298,
      "defence": 4299,
      "faced": 4300,
      "reduced": 4301,
      "channel": 4302,
      "nic": 4303,
      "ores": 4304,
      "etres": 4305,
      "excl": 4306,
      "cricket": 4307,
      "minnes": 4308,
      "charge": 4309,
      "carry": 4310,
      "domest": 4311,
      "italian": 4312,
      "resulted": 4313,
      "concluded": 4314,
      "affected": 4315,
      "intellig": 4316,
      "minnesota": 4317,
      "bia": 4318,
      "ridge": 4319,
      "ses": 4320,
      "sid": 4321,
      "stating": 4322,
      "advert": 4323,
      "iver": 4324,
      "ope": 4325,
      "sha": 4326,
      "residents": 4327,
      "prepar": 4328,
      "wealth": 4329,
      "cks": 4330,
      "conditions": 4331,
      "titles": 4332,
      "reports": 4333,
      "contrast": 4334,
      "initi": 4335,
      "spirit": 4336,
      "write": 4337,
      "townsend": 4338,
      "kakapo": 4339,
      "environ": 4340,
      "42": 4341,
      "foun": 4342,
      "chair": 4343,
      "trip": 4344,
      "emot": 4345,
      "stra": 4346,
      "athus": 4347,
      "efforts": 4348,
      "featuring": 4349,
      "borough": 4350,
      "declared": 4351,
      "rosebery": 4352,
      "separate": 4353,
      "revealed": 4354,
      "categ": 4355,
      "dun": 4356,
      "smo": 4357,
      "yue": 4358,
      "inch": 4359,
      "lee": 4360,
      "amy": 4361,
      "sust": 4362,
      "shiva": 4363,
      "artists": 4364,
      "liber": 4365,
      "eva": 4366,
      "specim": 4367,
      "description": 4368,
      "refused": 4369,
      "symbol": 4370,
      "meyerbeer": 4371,
      "4th": 4372,
      "kir": 4373,
      "incorpor": 4374,
      "bles": 4375,
      "finkel": 4376,
      "therefore": 4377,
      "strugg": 4378,
      "1970": 4379,
      "walpole": 4380,
      "techni": 4381,
      "independence": 4382,
      "extens": 4383,
      "finkelstein": 4384,
      "cab": 4385,
      "dur": 4386,
      "fear": 4387,
      "hang": 4388,
      "ield": 4389,
      "phas": 4390,
      "tessa": 4391,
      "shr": 4392,
      "weather": 4393,
      "webs": 4394,
      "job": 4395,
      "seasons": 4396,
      "legis": 4397,
      "aha": 4398,
      "planet": 4399,
      "naval": 4400,
      "practice": 4401,
      "impact": 4402,
      "casualties": 4403,
      "emperor": 4404,
      "eigh": 4405,
      "rum": 4406,
      "sr": 4407,
      "tree": 4408,
      "inner": 4409,
      "illu": 4410,
      "illino": 4411,
      "excav": 4412,
      "weaken": 4413,
      "mainly": 4414,
      "bute": 4415,
      "broken": 4416,
      "sense": 4417,
      "hope": 4418,
      "nicole": 4419,
      "pine": 4420,
      "alone": 4421,
      "ionally": 4422,
      "becomes": 4423,
      "aven": 4424,
      "log": 4425,
      "manu": 4426,
      "actually": 4427,
      "spot": 4428,
      "prise": 4429,
      "scale": 4430,
      "attention": 4431,
      "struck": 4432,
      "letters": 4433,
      "europ": 4434,
      "organized": 4435,
      "priest": 4436,
      "demonstr": 4437,
      "antimony": 4438,
      "restr": 4439,
      "alle": 4440,
      "ari": 4441,
      "apple": 4442,
      "neigh": 4443,
      "soviet": 4444,
      "note": 4445,
      "crim": 4446,
      "workers": 4447,
      "produce": 4448,
      "soundtrack": 4449,
      "capture": 4450,
      "mentioned": 4451,
      "sculpt": 4452,
      "tournament": 4453,
      "advantage": 4454,
      "braathens": 4455,
      "nast": 4456,
      "push": 4457,
      "tailed": 4458,
      "insul": 4459,
      "roles": 4460,
      "cher": 4461,
      "ria": 4462,
      "actress": 4463,
      "computer": 4464,
      "hait": 4465,
      "function": 4466,
      "vietnam": 4467,
      "primarily": 4468,
      "commissioned": 4469,
      "ultimately": 4470,
      "entertainment": 4471,
      "manufact": 4472,
      "gad": 4473,
      "gang": 4474,
      "hors": 4475,
      "wed": 4476,
      "ays": 4477,
      "actors": 4478,
      "serve": 4479,
      "cannot": 4480,
      "1990": 4481,
      "elected": 4482,
      "johnson": 4483,
      "farm": 4484,
      "arent": 4485,
      "hotel": 4486,
      "accepted": 4487,
      "achieved": 4488,
      "portugu": 4489,
      "9th": 4490,
      "paid": 4491,
      "ws": 4492,
      "oft": 4493,
      "ications": 4494,
      "urban": 4495,
      "ape": 4496,
      "ula": 4497,
      "shore": 4498,
      "artic": 4499,
      "loy": 4500,
      "perman": 4501,
      "fey": 4502,
      "guest": 4503,
      "180": 4504,
      "colony": 4505,
      "foundation": 4506,
      "graphic": 4507,
      "authority": 4508,
      "rainfall": 4509,
      "measure": 4510,
      "newspaper": 4511,
      "illustr": 4512,
      "portuguese": 4513,
      "ked": 4514,
      "sides": 4515,
      "tint": 4516,
      "wise": 4517,
      "alab": 4518,
      "exped": 4519,
      "iana": 4520,
      "spain": 4521,
      "spread": 4522,
      "princ": 4523,
      "kept": 4524,
      "alongside": 4525,
      "authorities": 4526,
      "electron": 4527,
      "flooding": 4528,
      "moment": 4529,
      "slightly": 4530,
      "96": 4531,
      "cities": 4532,
      "data": 4533,
      "alty": 4534,
      "dete": 4535,
      "composition": 4536,
      "auto": 4537,
      "opera": 4538,
      "1986": 4539,
      "titled": 4540,
      "battery": 4541,
      "cers": 4542,
      "py": 4543,
      "thr": 4544,
      "inches": 4545,
      "rear": 4546,
      "item": 4547,
      "igan": 4548,
      "concentr": 4549,
      "ulations": 4550,
      "expressed": 4551,
      "twice": 4552,
      "mechan": 4553,
      "phen": 4554,
      "founded": 4555,
      "direction": 4556,
      "defensive": 4557,
      "males": 4558,
      "flying": 4559,
      "ceeded": 4560,
      "physical": 4561,
      "louis": 4562,
      "conflict": 4563,
      "onymous": 4564,
      "ceremon": 4565,
      "domestic": 4566,
      "53": 4567,
      "zer": 4568,
      "recomm": 4569,
      "arms": 4570,
      "ura": 4571,
      "height": 4572,
      "apart": 4573,
      "avoid": 4574,
      "frag": 4575,
      "doing": 4576,
      "barrow": 4577,
      "clean": 4578,
      "battles": 4579,
      "showed": 4580,
      "ordin": 4581,
      "nesbit": 4582,
      "officials": 4583,
      "currently": 4584,
      "welsh": 4585,
      "disease": 4586,
      "analysis": 4587,
      "tintin": 4588,
      "cited": 4589,
      "kare": 4590,
      "oil": 4591,
      "snow": 4592,
      "enathus": 4593,
      "isions": 4594,
      "poet": 4595,
      "content": 4596,
      "toward": 4597,
      "ceres": 4598,
      "divided": 4599,
      "roll": 4600,
      "varanas": 4601,
      "roads": 4602,
      "officially": 4603,
      "apparent": 4604,
      "represented": 4605,
      "varanasi": 4606,
      "55": 4607,
      "7th": 4608,
      "ech": 4609,
      "ono": 4610,
      "arth": 4611,
      "admir": 4612,
      "cook": 4613,
      "feed": 4614,
      "ella": 4615,
      "miner": 4616,
      "identified": 4617,
      "says": 4618,
      "sites": 4619,
      "influenced": 4620,
      "neutr": 4621,
      "nesbitt": 4622,
      "lives": 4623,
      "thin": 4624,
      "encour": 4625,
      "extr": 4626,
      "continues": 4627,
      "earliest": 4628,
      "narrow": 4629,
      "francis": 4630,
      "individuals": 4631,
      "angeles": 4632,
      "dumont": 4633,
      "financial": 4634,
      "odaenathus": 4635,
      "illinois": 4636,
      "56": 4637,
      "eat": 4638,
      "iro": 4639,
      "map": 4640,
      "mut": 4641,
      "oth": 4642,
      "ying": 4643,
      "zed": 4644,
      "else": 4645,
      "convent": 4646,
      "oppon": 4647,
      "mogad": 4648,
      "1920": 4649,
      "shel": 4650,
      "exhib": 4651,
      "18th": 4652,
      "collabor": 4653,
      "singing": 4654,
      "viewers": 4655,
      "pedo": 4656,
      "resulting": 4657,
      "torpedo": 4658,
      "engineer": 4659,
      "chapel": 4660,
      "journey": 4661,
      "digital": 4662,
      "sarnia": 4663,
      "olympic": 4664,
      "adopted": 4665,
      "determined": 4666,
      "dance": 4667,
      "ec": 4668,
      "mn": 4669,
      "tank": 4670,
      "remix": 4671,
      "cham": 4672,
      "conver": 4673,
      "illa": 4674,
      "boats": 4675,
      "simp": 4676,
      "student": 4677,
      "studios": 4678,
      "letter": 4679,
      "basis": 4680,
      "golden": 4681,
      "sources": 4682,
      "potential": 4683,
      "dedicated": 4684,
      "executive": 4685,
      "cub": 4686,
      "raf": 4687,
      "chel": 4688,
      "agric": 4689,
      "tried": 4690,
      "uled": 4691,
      "ift": 4692,
      "losing": 4693,
      "manchester": 4694,
      "contain": 4695,
      "max": 4696,
      "visited": 4697,
      "americ": 4698,
      "rug": 4699,
      "cust": 4700,
      "wilhelm": 4701,
      "gradu": 4702,
      "surrounding": 4703,
      "assault": 4704,
      "camer": 4705,
      "ovic": 4706,
      "altar": 4707,
      "opt": 4708,
      "resol": 4709,
      "proved": 4710,
      "clark": 4711,
      "extra": 4712,
      "awa": 4713,
      "ounds": 4714,
      "normal": 4715,
      "drive": 4716,
      "medical": 4717,
      "effort": 4718,
      "passing": 4719,
      "vessel": 4720,
      "require": 4721,
      "transferred": 4722,
      "relatively": 4723,
      "washington": 4724,
      "maximum": 4725,
      "95": 4726,
      "fal": 4727,
      "ji": 4728,
      "nie": 4729,
      "trou": 4730,
      "inth": 4731,
      "recon": 4732,
      "leon": 4733,
      "chor": 4734,
      "unlike": 4735,
      "older": 4736,
      "prin": 4737,
      "attended": 4738,
      "flag": 4739,
      "ologist": 4740,
      "1988": 4741,
      "aith": 4742,
      "systems": 4743,
      "females": 4744,
      "fresh": 4745,
      "freeway": 4746,
      "archaeological": 4747,
      "agricult": 4748,
      "omaha": 4749,
      "images": 4750,
      "plum": 4751,
      "opposed": 4752,
      "aret": 4753,
      "notable": 4754,
      "flank": 4755,
      "osen": 4756,
      "visual": 4757,
      "survey": 4758,
      "invas": 4759,
      "helms": 4760,
      "orders": 4761,
      "glass": 4762,
      "buried": 4763,
      "possibly": 4764,
      "agreement": 4765,
      "meanwhile": 4766,
      "beyond": 4767,
      "economic": 4768,
      "joseph": 4769,
      "alabama": 4770,
      "mogadish": 4771,
      "kent": 4772,
      "nur": 4773,
      "pack": 4774,
      "rise": 4775,
      "sle": 4776,
      "ust": 4777,
      "edward": 4778,
      "stan": 4779,
      "argent": 4780,
      "asc": 4781,
      "ador": 4782,
      "poe": 4783,
      "cold": 4784,
      "fields": 4785,
      "ski": 4786,
      "designated": 4787,
      "believe": 4788,
      "motor": 4789,
      "baseball": 4790,
      "animal": 4791,
      "innis": 4792,
      "shape": 4793,
      "literature": 4794,
      "intensity": 4795,
      "kg": 4796,
      "lic": 4797,
      "uck": 4798,
      "lev": 4799,
      "deploy": 4800,
      "iven": 4801,
      "perón": 4802,
      "coal": 4803,
      "timore": 4804,
      "evol": 4805,
      "dissip": 4806,
      "follows": 4807,
      "suppl": 4808,
      "azz": 4809,
      "1940": 4810,
      "1960s": 4811,
      "results": 4812,
      "charts": 4813,
      "pieces": 4814,
      "institute": 4815,
      "horses": 4816,
      "mogadishu": 4817,
      "51": 4818,
      "jup": 4819,
      "kore": 4820,
      "mand": 4821,
      "nis": 4822,
      "ov": 4823,
      "paint": 4824,
      "seas": 4825,
      "mod": 4826,
      "express": 4827,
      "craz": 4828,
      "prime": 4829,
      "scar": 4830,
      "simply": 4831,
      "memorial": 4832,
      "1980s": 4833,
      "famous": 4834,
      "1964": 4835,
      "returning": 4836,
      "weekly": 4837,
      "supporting": 4838,
      "restaur": 4839,
      "solo": 4840,
      "cases": 4841,
      "historian": 4842,
      "mccall": 4843,
      "structures": 4844,
      "stones": 4845,
      "homes": 4846,
      "growing": 4847,
      "emphas": 4848,
      "treaty": 4849,
      "64": 4850,
      "bie": 4851,
      "gate": 4852,
      "hell": 4853,
      "md": 4854,
      "task": 4855,
      "reaction": 4856,
      "alleg": 4857,
      "condition": 4858,
      "underground": 4859,
      "publish": 4860,
      "claims": 4861,
      "importance": 4862,
      "projects": 4863,
      "holds": 4864,
      "successfully": 4865,
      "couple": 4866,
      "knowledge": 4867,
      "narr": 4868,
      "technology": 4869,
      "secretary": 4870,
      "equipment": 4871,
      "necessary": 4872,
      "entrance": 4873,
      "rugby": 4874,
      "97": 4875,
      "bull": 4876,
      "eag": 4877,
      "gained": 4878,
      "ja": 4879,
      "jay": 4880,
      "train": 4881,
      "propos": 4882,
      "playstation": 4883,
      "selling": 4884,
      "filming": 4885,
      "grew": 4886,
      "passes": 4887,
      "depth": 4888,
      "transl": 4889,
      "connected": 4890,
      "promotion": 4891,
      "growth": 4892,
      "railway": 4893,
      "argued": 4894,
      "djed": 4895,
      "bard": 4896,
      "ug": 4897,
      "imper": 4898,
      "rihanna": 4899,
      "landing": 4900,
      "weak": 4901,
      "draft": 4902,
      "hamels": 4903,
      "publication": 4904,
      "suggests": 4905,
      "baltimore": 4906,
      "crown": 4907,
      "attribut": 4908,
      "breeding": 4909,
      "website": 4910,
      "600": 4911,
      "cd": 4912,
      "dock": 4913,
      "jon": 4914,
      "oz": 4915,
      "tav": 4916,
      "tact": 4917,
      "xe": 4918,
      "ched": 4919,
      "accoun": 4920,
      "consecut": 4921,
      "utions": 4922,
      "rence": 4923,
      "icks": 4924,
      "sell": 4925,
      "belong": 4926,
      "supply": 4927,
      "causing": 4928,
      "vements": 4929,
      "placement": 4930,
      "plement": 4931,
      "campus": 4932,
      "versions": 4933,
      "volume": 4934,
      "reference": 4935,
      "benef": 4936,
      "palest": 4937,
      "criticized": 4938,
      "religion": 4939,
      "premier": 4940,
      "escape": 4941,
      "adelph": 4942,
      "advanced": 4943,
      "jupiter": 4944,
      "43": 4945,
      "faith": 4946,
      "ral": 4947,
      "tz": 4948,
      "ye": 4949,
      "ening": 4950,
      "enemy": 4951,
      "outer": 4952,
      "beaut": 4953,
      "usa": 4954,
      "oph": 4955,
      "abu": 4956,
      "uten": 4957,
      "astic": 4958,
      "elling": 4959,
      "newly": 4960,
      "containing": 4961,
      "speak": 4962,
      "door": 4963,
      "calls": 4964,
      "element": 4965,
      "dynast": 4966,
      "reaching": 4967,
      "label": 4968,
      "strike": 4969,
      "truth": 4970,
      "debuted": 4971,
      "multiple": 4972,
      "property": 4973,
      "democr": 4974,
      "settlement": 4975,
      "abandoned": 4976,
      "prominent": 4977,
      "djedkare": 4978,
      "65": 4979,
      "hart": 4980,
      "theory": 4981,
      "err": 4982,
      "ato": 4983,
      "aling": 4984,
      "chosen": 4985,
      "beth": 4986,
      "cler": 4987,
      "sphere": 4988,
      "ached": 4989,
      "owner": 4990,
      "joint": 4991,
      "regions": 4992,
      "broke": 4993,
      "obtain": 4994,
      "operated": 4995,
      "1947": 4996,
      "haven": 4997,
      "personnel": 4998,
      "torres": 4999,
      "administration": 5000,
      "rupt": 5001,
      "andrew": 5002,
      "wounded": 5003,
      "41": 5004,
      "ahead": 5005,
      "nich": 5006,
      "rejected": 5007,
      "ingu": 5008,
      "unknown": 5009,
      "corn": 5010,
      "compar": 5011,
      "1987": 5012,
      "marks": 5013,
      "youth": 5014,
      "slam": 5015,
      "pursu": 5016,
      "cells": 5017,
      "seems": 5018,
      "granted": 5019,
      "confirmed": 5020,
      "consecutive": 5021,
      "cake": 5022,
      "gil": 5023,
      "wick": 5024,
      "atter": 5025,
      "deities": 5026,
      "resist": 5027,
      "quake": 5028,
      "brid": 5029,
      "commonly": 5030,
      "dram": 5031,
      "seconds": 5032,
      "secondary": 5033,
      "address": 5034,
      "1941": 5035,
      "controlled": 5036,
      "chapter": 5037,
      "increasingly": 5038,
      "scottish": 5039,
      "prepared": 5040,
      "dvd": 5041,
      "straight": 5042,
      "applewhite": 5043,
      "crazy": 5044,
      "120": 5045,
      "bbc": 5046,
      "dal": 5047,
      "fash": 5048,
      "lum": 5049,
      "sund": 5050,
      "tan": 5051,
      "anonymous": 5052,
      "atmo": 5053,
      "stations": 5054,
      "arrest": 5055,
      "iced": 5056,
      "icts": 5057,
      "odon": 5058,
      "dog": 5059,
      "fix": 5060,
      "generation": 5061,
      "senior": 5062,
      "killing": 5063,
      "install": 5064,
      "promoted": 5065,
      "nominated": 5066,
      "risk": 5067,
      "temperature": 5068,
      "waters": 5069,
      "phase": 5070,
      "adelphia": 5071,
      "ré": 5072,
      "save": 5073,
      "vul": 5074,
      "yan": 5075,
      "atom": 5076,
      "chi": 5077,
      "istan": 5078,
      "crus": 5079,
      "attend": 5080,
      "fired": 5081,
      "1970s": 5082,
      "explained": 5083,
      "philos": 5084,
      "biography": 5085,
      "multi": 5086,
      "greek": 5087,
      "egyptian": 5088,
      "scholar": 5089,
      "fantasy": 5090,
      "chemical": 5091,
      "unique": 5092,
      "cruiser": 5093,
      "families": 5094,
      "dim": 5095,
      "fame": 5096,
      "gain": 5097,
      "hunt": 5098,
      "kur": 5099,
      "rating": 5100,
      "zy": 5101,
      "oured": 5102,
      "ira": 5103,
      "plate": 5104,
      "oppos": 5105,
      "nothing": 5106,
      "guy": 5107,
      "crete": 5108,
      "mike": 5109,
      "elev": 5110,
      "1984": 5111,
      "1989": 5112,
      "1972": 5113,
      "prompt": 5114,
      "glas": 5115,
      "bush": 5116,
      "burg": 5117,
      "croatia": 5118,
      "8th": 5119,
      "catch": 5120,
      "kang": 5121,
      "wer": 5122,
      "yo": 5123,
      "isol": 5124,
      "chains": 5125,
      "semi": 5126,
      "adult": 5127,
      "myth": 5128,
      "writes": 5129,
      "rolling": 5130,
      "1985": 5131,
      "swed": 5132,
      "choice": 5133,
      "experienced": 5134,
      "animals": 5135,
      "devot": 5136,
      "synthe": 5137,
      "regarded": 5138,
      "employed": 5139,
      "academ": 5140,
      "strengthen": 5141,
      "130": 5142,
      "gord": 5143,
      "hms": 5144,
      "ires": 5145,
      "onom": 5146,
      "arc": 5147,
      "resc": 5148,
      "worship": 5149,
      "interchange": 5150,
      "drama": 5151,
      "sions": 5152,
      "filmed": 5153,
      "brook": 5154,
      "1960": 5155,
      "ideas": 5156,
      "defend": 5157,
      "cardiff": 5158,
      "subsequent": 5159,
      "mortal": 5160,
      "happen": 5161,
      "budget": 5162,
      "poetry": 5163,
      "bask": 5164,
      "dates": 5165,
      "eas": 5166,
      "laid": 5167,
      "stood": 5168,
      "elim": 5169,
      "congress": 5170,
      "prot": 5171,
      "cool": 5172,
      "herself": 5173,
      "firm": 5174,
      "grade": 5175,
      "landfall": 5176,
      "keats": 5177,
      "dry": 5178,
      "southwest": 5179,
      "1944": 5180,
      "value": 5181,
      "humans": 5182,
      "gives": 5183,
      "belief": 5184,
      "michigan": 5185,
      "rooms": 5186,
      "walls": 5187,
      "suffic": 5188,
      "philadelphia": 5189,
      "pitched": 5190,
      "consisted": 5191,
      "ifying": 5192,
      "dropped": 5193,
      "frequently": 5194,
      "rapidly": 5195,
      "weapons": 5196,
      "invasion": 5197,
      "cot": 5198,
      "kit": 5199,
      "mist": 5200,
      "ole": 5201,
      "rab": 5202,
      "sie": 5203,
      "yl": 5204,
      "resem": 5205,
      "asia": 5206,
      "decre": 5207,
      "ulty": 5208,
      "clock": 5209,
      "illo": 5210,
      "mann": 5211,
      "creating": 5212,
      "collap": 5213,
      "minim": 5214,
      "highlight": 5215,
      "1990s": 5216,
      "matter": 5217,
      "heads": 5218,
      "continent": 5219,
      "skill": 5220,
      "powers": 5221,
      "transit": 5222,
      "magn": 5223,
      "dani": 5224,
      "industri": 5225,
      "battalions": 5226,
      "seventh": 5227,
      "kilom": 5228,
      "maintained": 5229,
      "failure": 5230,
      "injury": 5231,
      "aspects": 5232,
      "happy": 5233,
      "extensive": 5234,
      "87": 5235,
      "94": 5236,
      "ez": 5237,
      "egg": 5238,
      "fict": 5239,
      "oon": 5240,
      "ries": 5241,
      "inations": 5242,
      "decor": 5243,
      "why": 5244,
      "usual": 5245,
      "ults": 5246,
      "ieval": 5247,
      "bru": 5248,
      "mush": 5249,
      "retired": 5250,
      "ceratops": 5251,
      "protection": 5252,
      "province": 5253,
      "explor": 5254,
      "popularity": 5255,
      "electric": 5256,
      "teenth": 5257,
      "dutch": 5258,
      "gulf": 5259,
      "bottom": 5260,
      "basket": 5261,
      "cart": 5262,
      "dd": 5263,
      "dial": 5264,
      "none": 5265,
      "naz": 5266,
      "nathan": 5267,
      "wolf": 5268,
      "recover": 5269,
      "iguan": 5270,
      "cole": 5271,
      "grav": 5272,
      "medieval": 5273,
      "steve": 5274,
      "bari": 5275,
      "italy": 5276,
      "km2": 5277,
      "allows": 5278,
      "criticism": 5279,
      "significantly": 5280,
      "victim": 5281,
      "recognized": 5282,
      "pilot": 5283,
      "sustained": 5284,
      "custom": 5285,
      "gor": 5286,
      "sail": 5287,
      "vice": 5288,
      "thor": 5289,
      "stal": 5290,
      "alan": 5291,
      "plain": 5292,
      "astron": 5293,
      "perhap": 5294,
      "bron": 5295,
      "cry": 5296,
      "producers": 5297,
      "starts": 5298,
      "peninsul": 5299,
      "aurus": 5300,
      "facilities": 5301,
      "finding": 5302,
      "motion": 5303,
      "lieuten": 5304,
      "scheduled": 5305,
      "intelligence": 5306,
      "americans": 5307,
      "jes": 5308,
      "kes": 5309,
      "sought": 5310,
      "chose": 5311,
      "comic": 5312,
      "proto": 5313,
      "etic": 5314,
      "attor": 5315,
      "libr": 5316,
      "monument": 5317,
      "steam": 5318,
      "surrender": 5319,
      "simple": 5320,
      "distingu": 5321,
      "skin": 5322,
      "delay": 5323,
      "incident": 5324,
      "surviv": 5325,
      "nett": 5326,
      "losses": 5327,
      "regarding": 5328,
      "treatment": 5329,
      "occupied": 5330,
      "filled": 5331,
      "conservation": 5332,
      "industrial": 5333,
      "perhaps": 5334,
      "fought": 5335,
      "mine": 5336,
      "psy": 5337,
      "rated": 5338,
      "rub": 5339,
      "table": 5340,
      "wrest": 5341,
      "theless": 5342,
      "ancy": 5343,
      "store": 5344,
      "isy": 5345,
      "accompan": 5346,
      "allied": 5347,
      "shop": 5348,
      "clou": 5349,
      "aston": 5350,
      "dub": 5351,
      "crash": 5352,
      "izes": 5353,
      "frame": 5354,
      "setting": 5355,
      "160": 5356,
      "1981": 5357,
      "collected": 5358,
      "apping": 5359,
      "vietnames": 5360,
      "fellow": 5361,
      "recently": 5362,
      "nucleus": 5363,
      "policy": 5364,
      "witness": 5365,
      "nichol": 5366,
      "gordon": 5367,
      "vietnamese": 5368,
      "66": 5369,
      "āda": 5370,
      "advis": 5371,
      "degree": 5372,
      "moon": 5373,
      "twel": 5374,
      "blin": 5375,
      "marines": 5376,
      "17th": 5377,
      "pleas": 5378,
      "finds": 5379,
      "cros": 5380,
      "gradually": 5381,
      "cambod": 5382,
      "shaped": 5383,
      "thunderbirds": 5384,
      "fashion": 5385,
      "bart": 5386,
      "nas": 5387,
      "oke": 5388,
      "wins": 5389,
      "yu": 5390,
      "ona": 5391,
      "eda": 5392,
      "stages": 5393,
      "contest": 5394,
      "embar": 5395,
      "gray": 5396,
      "presents": 5397,
      "prefer": 5398,
      "contained": 5399,
      "juan": 5400,
      "rival": 5401,
      "justice": 5402,
      "1939": 5403,
      "missions": 5404,
      "safety": 5405,
      "oxford": 5406,
      "problem": 5407,
      "habitat": 5408,
      "distribution": 5409,
      "peninsula": 5410,
      "mate": 5411,
      "rical": 5412,
      "sens": 5413,
      "inde": 5414,
      "chess": 5415,
      "dean": 5416,
      "heard": 5417,
      "trap": 5418,
      "bright": 5419,
      "iang": 5420,
      "iance": 5421,
      "awn": 5422,
      "partner": 5423,
      "canal": 5424,
      "finish": 5425,
      "gameplay": 5426,
      "capable": 5427,
      "ogy": 5428,
      "worldwide": 5429,
      "severe": 5430,
      "serving": 5431,
      "hydro": 5432,
      "1942": 5433,
      "macle": 5434,
      "improved": 5435,
      "martin": 5436,
      "athletes": 5437,
      "contributed": 5438,
      "negative": 5439,
      "editor": 5440,
      "arthur": 5441,
      "98": 5442,
      "gest": 5443,
      "nba": 5444,
      "rising": 5445,
      "sections": 5446,
      "acres": 5447,
      "unte": 5448,
      "iments": 5449,
      "hem": 5450,
      "terror": 5451,
      "concrete": 5452,
      "agent": 5453,
      "moves": 5454,
      "ulate": 5455,
      "neither": 5456,
      "negot": 5457,
      "1918": 5458,
      "anton": 5459,
      "ansas": 5460,
      "sses": 5461,
      "metro": 5462,
      "portra": 5463,
      "solid": 5464,
      "turner": 5465,
      "volunte": 5466,
      "faces": 5467,
      "drawn": 5468,
      "effective": 5469,
      "floor": 5470,
      "championships": 5471,
      "purpose": 5472,
      "programs": 5473,
      "philip": 5474,
      "williams": 5475,
      "entirely": 5476,
      "economy": 5477,
      "lisa": 5478,
      "1950s": 5479,
      "challeng": 5480,
      "cinem": 5481,
      "dynasty": 5482,
      "fictional": 5483,
      "lieutenant": 5484,
      "54": 5485,
      "700": 5486,
      "bin": 5487,
      "bann": 5488,
      "dden": 5489,
      "dota": 5490,
      "fare": 5491,
      "gab": 5492,
      "jain": 5493,
      "inspir": 5494,
      "rox": 5495,
      "lewis": 5496,
      "acu": 5497,
      "shed": 5498,
      "quite": 5499,
      "boise": 5500,
      "boston": 5501,
      "mario": 5502,
      "centuries": 5503,
      "display": 5504,
      "engaged": 5505,
      "goes": 5506,
      "muslim": 5507,
      "retre": 5508,
      "eleven": 5509,
      "12th": 5510,
      "headed": 5511,
      "1968": 5512,
      "1969": 5513,
      "sentence": 5514,
      "brian": 5515,
      "expanded": 5516,
      "turk": 5517,
      "favour": 5518,
      "reasons": 5519,
      "responded": 5520,
      "hawai": 5521,
      "slowly": 5522,
      "adapt": 5523,
      "exclus": 5524,
      "europium": 5525,
      "items": 5526,
      "imperial": 5527,
      "kilometres": 5528,
      "bath": 5529,
      "dor": 5530,
      "gw": 5531,
      "gill": 5532,
      "pap": 5533,
      "rig": 5534,
      "zone": 5535,
      "ánh": 5536,
      "anne": 5537,
      "rey": 5538,
      "atives": 5539,
      "ala": 5540,
      "ented": 5541,
      "agu": 5542,
      "neck": 5543,
      "shar": 5544,
      "udes": 5545,
      "marsh": 5546,
      "paralle": 5547,
      "roughly": 5548,
      "charter": 5549,
      "holy": 5550,
      "1975": 5551,
      "decade": 5552,
      "decades": 5553,
      "classified": 5554,
      "deaths": 5555,
      "possibility": 5556,
      "massive": 5557,
      "scription": 5558,
      "munic": 5559,
      "planning": 5560,
      "violence": 5561,
      "gully": 5562,
      "russian": 5563,
      "mobile": 5564,
      "expedition": 5565,
      "dang": 5566,
      "kat": 5567,
      "mul": 5568,
      "sort": 5569,
      "enc": 5570,
      "stret": 5571,
      "roof": 5572,
      "ads": 5573,
      "bern": 5574,
      "pty": 5575,
      "liu": 5576,
      "evil": 5577,
      "evita": 5578,
      "steel": 5579,
      "appeal": 5580,
      "pope": 5581,
      "1965": 5582,
      "1974": 5583,
      "didn": 5584,
      "evening": 5585,
      "organiz": 5586,
      "eyes": 5587,
      "girls": 5588,
      "transportation": 5589,
      "confess": 5590,
      "occasionally": 5591,
      "micro": 5592,
      "avenue": 5593,
      "61": 5594,
      "gus": 5595,
      "kings": 5596,
      "arsen": 5597,
      "isab": 5598,
      "sector": 5599,
      "adow": 5600,
      "lywood": 5601,
      "hear": 5602,
      "exer": 5603,
      "elli": 5604,
      "norm": 5605,
      "speaking": 5606,
      "adding": 5607,
      "azil": 5608,
      "churches": 5609,
      "passeng": 5610,
      "falls": 5611,
      "additionally": 5612,
      "holding": 5613,
      "learned": 5614,
      "khánh": 5615,
      "competit": 5616,
      "purchased": 5617,
      "legisl": 5618,
      "negoti": 5619,
      "800": 5620,
      "jurch": 5621,
      "jump": 5622,
      "knot": 5623,
      "rebel": 5624,
      "anda": 5625,
      "tot": 5626,
      "aml": 5627,
      "wides": 5628,
      "quot": 5629,
      "aug": 5630,
      "formula": 5631,
      "anny": 5632,
      "struction": 5633,
      "rivers": 5634,
      "belt": 5635,
      "leaders": 5636,
      "declined": 5637,
      "jamal": 5638,
      "wedding": 5639,
      "59": 5640,
      "85": 5641,
      "citing": 5642,
      "ule": 5643,
      "ero": 5644,
      "rever": 5645,
      "reli": 5646,
      "remn": 5647,
      "inger": 5648,
      "iled": 5649,
      "accompl": 5650,
      "begun": 5651,
      "lying": 5652,
      "usal": 5653,
      "ctors": 5654,
      "compr": 5655,
      "iful": 5656,
      "dublin": 5657,
      "assass": 5658,
      "foc": 5659,
      "guide": 5660,
      "lide": 5661,
      "prec": 5662,
      "contact": 5663,
      "tenny": 5664,
      "longest": 5665,
      "1946": 5666,
      "clubs": 5667,
      "authors": 5668,
      "politics": 5669,
      "doub": 5670,
      "arrival": 5671,
      "crowd": 5672,
      "applied": 5673,
      "performing": 5674,
      "experiment": 5675,
      "briefly": 5676,
      "sweet": 5677,
      "details": 5678,
      "category": 5679,
      "permanent": 5680,
      "paintings": 5681,
      "protagon": 5682,
      "attorney": 5683,
      "macleod": 5684,
      "tennyson": 5685,
      "crop": 5686,
      "hired": 5687,
      "kits": 5688,
      "sight": 5689,
      "wart": 5690,
      "infr": 5691,
      "reput": 5692,
      "ena": 5693,
      "acre": 5694,
      "rian": 5695,
      "herit": 5696,
      "crime": 5697,
      "desc": 5698,
      "interior": 5699,
      "warm": 5700,
      "simone": 5701,
      "developing": 5702,
      "somal": 5703,
      "billion": 5704,
      "basin": 5705,
      "accident": 5706,
      "technical": 5707,
      "literary": 5708,
      "settlers": 5709,
      "thirty": 5710,
      "instrument": 5711,
      "astronom": 5712,
      "dating": 5713,
      "lings": 5714,
      "nc": 5715,
      "wic": 5716,
      "witch": 5717,
      "yle": 5718,
      "repl": 5719,
      "stable": 5720,
      "routes": 5721,
      "aman": 5722,
      "bean": 5723,
      "abor": 5724,
      "1919": 5725,
      "rio": 5726,
      "maria": 5727,
      "pregn": 5728,
      "phill": 5729,
      "visible": 5730,
      "16th": 5731,
      "populations": 5732,
      "1966": 5733,
      "walk": 5734,
      "1952": 5735,
      "1936": 5736,
      "freed": 5737,
      "engineering": 5738,
      "earthquake": 5739,
      "existing": 5740,
      "existence": 5741,
      "funding": 5742,
      "banks": 5743,
      "participated": 5744,
      "scholars": 5745,
      "discovery": 5746,
      "enjoyed": 5747,
      "accompanied": 5748,
      "110": 5749,
      "52": 5750,
      "bone": 5751,
      "fuel": 5752,
      "jazz": 5753,
      "ogue": 5754,
      "pir": 5755,
      "pus": 5756,
      "page": 5757,
      "uly": 5758,
      "wish": 5759,
      "ía": 5760,
      "ān": 5761,
      "repair": 5762,
      "edar": 5763,
      "aser": 5764,
      "oldest": 5765,
      "aine": 5766,
      "ifically": 5767,
      "correct": 5768,
      "ictions": 5769,
      "grapher": 5770,
      "characteristics": 5771,
      "lasted": 5772,
      "explo": 5773,
      "typical": 5774,
      "combination": 5775,
      "competitions": 5776,
      "painting": 5777,
      "brothers": 5778,
      "credited": 5779,
      "anthony": 5780,
      "reinforce": 5781,
      "ulysses": 5782,
      "kins": 5783,
      "mud": 5784,
      "pav": 5785,
      "von": 5786,
      "inity": 5787,
      "uss": 5788,
      "apt": 5789,
      "ette": 5790,
      "aka": 5791,
      "aked": 5792,
      "rier": 5793,
      "fee": 5794,
      "pread": 5795,
      "carib": 5796,
      "oslo": 5797,
      "grey": 5798,
      "consists": 5799,
      "missing": 5800,
      "locations": 5801,
      "1973": 5802,
      "dominated": 5803,
      "protected": 5804,
      "magic": 5805,
      "classic": 5806,
      "turning": 5807,
      "reviewers": 5808,
      "glades": 5809,
      "younger": 5810,
      "virt": 5811,
      "changing": 5812,
      "coastal": 5813,
      "hills": 5814,
      "cardinal": 5815,
      "session": 5816,
      "reserve": 5817,
      "thousands": 5818,
      "opportunity": 5819,
      "fountain": 5820,
      "chorus": 5821,
      "turkish": 5822,
      "widespread": 5823,
      "caught": 5824,
      "nell": 5825,
      "vat": 5826,
      "albert": 5827,
      "ingly": 5828,
      "chance": 5829,
      "seat": 5830,
      "entially": 5831,
      "aded": 5832,
      "acid": 5833,
      "iday": 5834,
      "supre": 5835,
      "ares": 5836,
      "istol": 5837,
      "resident": 5838,
      "eman": 5839,
      "forming": 5840,
      "cked": 5841,
      "anything": 5842,
      "divisions": 5843,
      "receiving": 5844,
      "1967": 5845,
      "appearing": 5846,
      "reading": 5847,
      "greatly": 5848,
      "reality": 5849,
      "everything": 5850,
      "closely": 5851,
      "expans": 5852,
      "stopped": 5853,
      "mountains": 5854,
      "tells": 5855,
      "rhyth": 5856,
      "hornung": 5857,
      "vehicles": 5858,
      "technique": 5859,
      "weakened": 5860,
      "ceremony": 5861,
      "iguanodon": 5862,
      "focused": 5863,
      "62": 5864,
      "77": 5865,
      "dod": 5866,
      "pic": 5867,
      "rural": 5868,
      "sara": 5869,
      "zen": 5870,
      "zam": 5871,
      "ione": 5872,
      "amate": 5873,
      "entry": 5874,
      "1914": 5875,
      "prop": 5876,
      "perry": 5877,
      "derived": 5878,
      "boys": 5879,
      "noisy": 5880,
      "creator": 5881,
      "colour": 5882,
      "monarch": 5883,
      "viewed": 5884,
      "serves": 5885,
      "invited": 5886,
      "legacy": 5887,
      "diam": 5888,
      "provides": 5889,
      "storyline": 5890,
      "similarly": 5891,
      "decline": 5892,
      "georg": 5893,
      "rules": 5894,
      "affair": 5895,
      "colonial": 5896,
      "assistant": 5897,
      "innings": 5898,
      "establishment": 5899,
      "races": 5900,
      "1930s": 5901,
      "chelsea": 5902,
      "restaurant": 5903,
      "81": 5904,
      "bought": 5905,
      "cort": 5906,
      "gone": 5907,
      "iet": 5908,
      "jen": 5909,
      "kom": 5910,
      "kno": 5911,
      "rag": 5912,
      "tig": 5913,
      "vac": 5914,
      "reven": 5915,
      "encounter": 5916,
      "orchest": 5917,
      "elder": 5918,
      "urb": 5919,
      "resour": 5920,
      "rie": 5921,
      "aste": 5922,
      "outs": 5923,
      "ips": 5924,
      "bling": 5925,
      "iza": 5926,
      "gene": 5927,
      "supposed": 5928,
      "ifications": 5929,
      "download": 5930,
      "breaking": 5931,
      "alien": 5932,
      "palace": 5933,
      "looked": 5934,
      "douglas": 5935,
      "survived": 5936,
      "satis": 5937,
      "flights": 5938,
      "substant": 5939,
      "electronic": 5940,
      "battleship": 5941,
      "dissipated": 5942,
      "caribbean": 5943,
      "fold": 5944,
      "gon": 5945,
      "tend": 5946,
      "ining": 5947,
      "seg": 5948,
      "elic": 5949,
      "accur": 5950,
      "conve": 5951,
      "consul": 5952,
      "shared": 5953,
      "umes": 5954,
      "exh": 5955,
      "geo": 5956,
      "intend": 5957,
      "compon": 5958,
      "evacu": 5959,
      "flash": 5960,
      "maeda": 5961,
      "puzz": 5962,
      "capac": 5963,
      "suppor": 5964,
      "receive": 5965,
      "describing": 5966,
      "trying": 5967,
      "1945": 5968,
      "1971": 5969,
      "destiny": 5970,
      "seeing": 5971,
      "entering": 5972,
      "georgian": 5973,
      "novels": 5974,
      "demand": 5975,
      "colonel": 5976,
      "hibari": 5977,
      "ratings": 5978,
      "watched": 5979,
      "secure": 5980,
      "acquired": 5981,
      "arranged": 5982,
      "constantine": 5983,
      "freder": 5984,
      "opinion": 5985,
      "repeated": 5986,
      "eagle": 5987,
      "atmosphere": 5988,
      "250": 5989,
      "79": 5990,
      "89": 5991,
      "fu": 5992,
      "fine": 5993,
      "gé": 5994,
      "hindu": 5995,
      "jones": 5996,
      "lon": 5997,
      "mtv": 5998,
      "qedar": 5999,
      "ét": 6000,
      "inte": 6001,
      "ario": 6002,
      "eli": 6003,
      "ola": 6004,
      "irt": 6005,
      "opposition": 6006,
      "abs": 6007,
      "abol": 6008,
      "exact": 6009,
      "ighter": 6010,
      "correspond": 6011,
      "attached": 6012,
      "preced": 6013,
      "everglades": 6014,
      "regional": 6015,
      "mah": 6016,
      "whereas": 6017,
      "simon": 6018,
      "willing": 6019,
      "1982": 6020,
      "legend": 6021,
      "penalty": 6022,
      "dynam": 6023,
      "facing": 6024,
      "champions": 6025,
      "romani": 6026,
      "brien": 6027,
      "trust": 6028,
      "introduction": 6029,
      "ruli": 6030,
      "phoen": 6031,
      "franch": 6032,
      "teaching": 6033,
      "defined": 6034,
      "spacing": 6035,
      "eighth": 6036,
      "converted": 6037,
      "library": 6038,
      "exerc": 6039,
      "71": 6040,
      "knew": 6041,
      "pse": 6042,
      "tie": 6043,
      "recru": 6044,
      "atus": 6045,
      "stic": 6046,
      "isis": 6047,
      "cong": 6048,
      "ider": 6049,
      "1916": 6050,
      "1913": 6051,
      "lover": 6052,
      "brazil": 6053,
      "spur": 6054,
      "pton": 6055,
      "formal": 6056,
      "renamed": 6057,
      "gency": 6058,
      "venus": 6059,
      "1980": 6060,
      "succeeded": 6061,
      "junction": 6062,
      "1976": 6063,
      "depicted": 6064,
      "harmon": 6065,
      "camps": 6066,
      "providing": 6067,
      "prize": 6068,
      "1956": 6069,
      "calcul": 6070,
      "rane": 6071,
      "engineers": 6072,
      "poems": 6073,
      "graded": 6074,
      "professor": 6075,
      "issance": 6076,
      "assistance": 6077,
      "credits": 6078,
      "masters": 6079,
      "split": 6080,
      "controvers": 6081,
      "haiti": 6082,
      "rescue": 6083,
      "mushroom": 6084,
      "patt": 6085,
      "tied": 6086,
      "wet": 6087,
      "infe": 6088,
      "oral": 6089,
      "rober": 6090,
      "ilton": 6091,
      "immig": 6092,
      "iring": 6093,
      "hearts": 6094,
      "romantic": 6095,
      "iston": 6096,
      "soil": 6097,
      "cos": 6098,
      "strateg": 6099,
      "duke": 6100,
      "phone": 6101,
      "regime": 6102,
      "10th": 6103,
      "1943": 6104,
      "protect": 6105,
      "getting": 6106,
      "communist": 6107,
      "tests": 6108,
      "strip": 6109,
      "homer": 6110,
      "consisting": 6111,
      "separated": 6112,
      "methods": 6113,
      "delivered": 6114,
      "citiz": 6115,
      "circum": 6116,
      "certified": 6117,
      "article": 6118,
      "supplies": 6119,
      "siege": 6120,
      "daniel": 6121,
      "basketball": 6122,
      "amateur": 6123,
      "69": 6124,
      "72": 6125,
      "hits": 6126,
      "jum": 6127,
      "nbc": 6128,
      "rates": 6129,
      "wine": 6130,
      "eratops": 6131,
      "restor": 6132,
      "leaves": 6133,
      "versy": 6134,
      "sudden": 6135,
      "affect": 6136,
      "outstanding": 6137,
      "spin": 6138,
      "desire": 6139,
      "attle": 6140,
      "prey": 6141,
      "soul": 6142,
      "leads": 6143,
      "1963": 6144,
      "commanded": 6145,
      "morrison": 6146,
      "sequences": 6147,
      "rangers": 6148,
      "civilian": 6149,
      "colonies": 6150,
      "jersey": 6151,
      "lords": 6152,
      "athletic": 6153,
      "examples": 6154,
      "rarely": 6155,
      "dinosaur": 6156,
      "indicate": 6157,
      "adapted": 6158,
      "controversy": 6159,
      "distinct": 6160,
      "shooting": 6161,
      "cens": 6162,
      "iber": 6163,
      "pin": 6164,
      "rep": 6165,
      "stu": 6166,
      "orbit": 6167,
      "irs": 6168,
      "agents": 6169,
      "superi": 6170,
      "pled": 6171,
      "utc": 6172,
      "finishing": 6173,
      "ritual": 6174,
      "producing": 6175,
      "remainder": 6176,
      "walter": 6177,
      "classes": 6178,
      "australians": 6179,
      "11th": 6180,
      "references": 6181,
      "hollywood": 6182,
      "truj": 6183,
      "ruled": 6184,
      "interested": 6185,
      "issip": 6186,
      "archaeology": 6187,
      "montana": 6188,
      "columbia": 6189,
      "mississip": 6190,
      "bradford": 6191,
      "portrayed": 6192,
      "alexander": 6193,
      "pattern": 6194,
      "chairman": 6195,
      "accounts": 6196,
      "sunday": 6197,
      "reputation": 6198,
      "lau": 6199,
      "online": 6200,
      "leuk": 6201,
      "appre": 6202,
      "uma": 6203,
      "ameter": 6204,
      "worst": 6205,
      "assess": 6206,
      "disc": 6207,
      "forests": 6208,
      "specifically": 6209,
      "views": 6210,
      "studied": 6211,
      "divine": 6212,
      "memory": 6213,
      "cycle": 6214,
      "1978": 6215,
      "denied": 6216,
      "turns": 6217,
      "1953": 6218,
      "tomb": 6219,
      "occurs": 6220,
      "connection": 6221,
      "regularly": 6222,
      "maryland": 6223,
      "feelings": 6224,
      "substit": 6225,
      "threatened": 6226,
      "croatian": 6227,
      "bringing": 6228,
      "anzac": 6229,
      "agricultural": 6230,
      "trujillo": 6231,
      "112": 6232,
      "aire": 6233,
      "cash": 6234,
      "dna": 6235,
      "fro": 6236,
      "jev": 6237,
      "yank": 6238,
      "replace": 6239,
      "ensu": 6240,
      "eliza": 6241,
      "ivity": 6242,
      "plunk": 6243,
      "uted": 6244,
      "exit": 6245,
      "expect": 6246,
      "brand": 6247,
      "noting": 6248,
      "boom": 6249,
      "strand": 6250,
      "indig": 6251,
      "scop": 6252,
      "partial": 6253,
      "offense": 6254,
      "charlie": 6255,
      "stephen": 6256,
      "passage": 6257,
      "successor": 6258,
      "classical": 6259,
      "leagues": 6260,
      "appropri": 6261,
      "patrol": 6262,
      "wooden": 6263,
      "communities": 6264,
      "laws": 6265,
      "plane": 6266,
      "labour": 6267,
      "statement": 6268,
      "recognition": 6269,
      "alternative": 6270,
      "feeling": 6271,
      "favorite": 6272,
      "roxas": 6273,
      "mississippi": 6274,
      "58": 6275,
      "tall": 6276,
      "za": 6277,
      "inals": 6278,
      "ene": 6279,
      "plants": 6280,
      "ophy": 6281,
      "nether": 6282,
      "1915": 6283,
      "isters": 6284,
      "dismissed": 6285,
      "coll": 6286,
      "rend": 6287,
      "speech": 6288,
      "charges": 6289,
      "warri": 6290,
      "knight": 6291,
      "howard": 6292,
      "stefan": 6293,
      "oba": 6294,
      "storms": 6295,
      "talk": 6296,
      "reviewer": 6297,
      "patri": 6298,
      "basic": 6299,
      "activision": 6300,
      "samuel": 6301,
      "wrong": 6302,
      "rifles": 6303,
      "gallery": 6304,
      "global": 6305,
      "dollars": 6306,
      "picture": 6307,
      "message": 6308,
      "principal": 6309,
      "attributed": 6310,
      "arsenal": 6311,
      "supreme": 6312,
      "plunket": 6313,
      "cate": 6314,
      "dict": 6315,
      "fab": 6316,
      "iar": 6317,
      "mol": 6318,
      "ninth": 6319,
      "sb": 6320,
      "vary": 6321,
      "wim": 6322,
      "ini": 6323,
      "inland": 6324,
      "theater": 6325,
      "eds": 6326,
      "enge": 6327,
      "ora": 6328,
      "terior": 6329,
      "agree": 6330,
      "cture": 6331,
      "oty": 6332,
      "sher": 6333,
      "shark": 6334,
      "loose": 6335,
      "antly": 6336,
      "ques": 6337,
      "veget": 6338,
      "carbon": 6339,
      "wars": 6340,
      "retire": 6341,
      "legs": 6342,
      "continuing": 6343,
      "drawing": 6344,
      "enterprise": 6345,
      "calvert": 6346,
      "involvement": 6347,
      "hugh": 6348,
      "relationships": 6349,
      "discussed": 6350,
      "considerable": 6351,
      "adventure": 6352,
      "tribes": 6353,
      "specimens": 6354,
      "opponents": 6355,
      "academic": 6356,
      "twelve": 6357,
      "isabella": 6358,
      "knots": 6359,
      "capacity": 6360,
      "danny": 6361,
      "hud": 6362,
      "nand": 6363,
      "pale": 6364,
      "taught": 6365,
      "vet": 6366,
      "ano": 6367,
      "stap": 6368,
      "sevent": 6369,
      "decess": 6370,
      "absor": 6371,
      "1917": 6372,
      "allah": 6373,
      "shadow": 6374,
      "exchange": 6375,
      "firing": 6376,
      "predecess": 6377,
      "offers": 6378,
      "monit": 6379,
      "genre": 6380,
      "someone": 6381,
      "towers": 6382,
      "releg": 6383,
      "1948": 6384,
      "standards": 6385,
      "moral": 6386,
      "nighting": 6387,
      "difficulty": 6388,
      "railroad": 6389,
      "teacher": 6390,
      "challenge": 6391,
      "extrem": 6392,
      "emotional": 6393,
      "fixed": 6394,
      "dangerous": 6395,
      "kitsune": 6396,
      "sarajev": 6397,
      "integr": 6398,
      "sarajevo": 6399,
      "57": 6400,
      "bil": 6401,
      "dag": 6402,
      "gather": 6403,
      "hat": 6404,
      "ias": 6405,
      "jif": 6406,
      "ku": 6407,
      "obl": 6408,
      "sang": 6409,
      "soft": 6410,
      "atures": 6411,
      "stall": 6412,
      "seek": 6413,
      "iles": 6414,
      "unes": 6415,
      "conce": 6416,
      "mode": 6417,
      "ava": 6418,
      "manner": 6419,
      "ardo": 6420,
      "austri": 6421,
      "acks": 6422,
      "cory": 6423,
      "intention": 6424,
      "poses": 6425,
      "offman": 6426,
      "disci": 6427,
      "paras": 6428,
      "ologists": 6429,
      "signing": 6430,
      "1979": 6431,
      "grounds": 6432,
      "1951": 6433,
      "rocky": 6434,
      "demol": 6435,
      "learn": 6436,
      "guardian": 6437,
      "victoria": 6438,
      "incorporated": 6439,
      "frederick": 6440,
      "superior": 6441,
      "yankovic": 6442,
      "88": 6443,
      "bure": 6444,
      "eper": 6445,
      "tam": 6446,
      "replacement": 6447,
      "alph": 6448,
      "armor": 6449,
      "mozam": 6450,
      "proceed": 6451,
      "clay": 6452,
      "cock": 6453,
      "spr": 6454,
      "grace": 6455,
      "landed": 6456,
      "sized": 6457,
      "joe": 6458,
      "ickets": 6459,
      "ultane": 6460,
      "simultane": 6461,
      "diver": 6462,
      "1961": 6463,
      "tales": 6464,
      "ception": 6465,
      "furt": 6466,
      "advoc": 6467,
      "approved": 6468,
      "patrick": 6469,
      "somali": 6470,
      "1954": 6471,
      "historians": 6472,
      "brigades": 6473,
      "coup": 6474,
      "ruler": 6475,
      "liked": 6476,
      "nomination": 6477,
      "sessions": 6478,
      "painted": 6479,
      "skye": 6480,
      "observations": 6481,
      "leadership": 6482,
      "candidate": 6483,
      "neighbor": 6484,
      "chamber": 6485,
      "clarkson": 6486,
      "crossing": 6487,
      "heritage": 6488,
      "dess": 6489,
      "hoc": 6490,
      "sic": 6491,
      "santa": 6492,
      "wan": 6493,
      "intr": 6494,
      "inhabit": 6495,
      "reconstruction": 6496,
      "adults": 6497,
      "bee": 6498,
      "bear": 6499,
      "agency": 6500,
      "avia": 6501,
      "estate": 6502,
      "pts": 6503,
      "parties": 6504,
      "intersection": 6505,
      "muscar": 6506,
      "visions": 6507,
      "schem": 6508,
      "barbar": 6509,
      "covering": 6510,
      "helmet": 6511,
      "valu": 6512,
      "13th": 6513,
      "watershed": 6514,
      "provin": 6515,
      "streets": 6516,
      "believes": 6517,
      "1937": 6518,
      "fungus": 6519,
      "destroyers": 6520,
      "wilde": 6521,
      "existed": 6522,
      "bono": 6523,
      "learning": 6524,
      "teeth": 6525,
      "jerusal": 6526,
      "secured": 6527,
      "arrangement": 6528,
      "distributed": 6529,
      "emerged": 6530,
      "picked": 6531,
      "documentary": 6532,
      "adams": 6533,
      "behavi": 6534,
      "recommended": 6535,
      "admiral": 6536,
      "francisco": 6537,
      "simpsons": 6538,
      "organizations": 6539,
      "ranean": 6540,
      "roberts": 6541,
      "leukem": 6542,
      "nightingale": 6543,
      "extremely": 6544,
      "jifna": 6545,
      "bureau": 6546,
      "jerusalem": 6547,
      "bou": 6548,
      "bats": 6549,
      "matt": 6550,
      "tap": 6551,
      "tale": 6552,
      "ua": 6553,
      "thy": 6554,
      "inate": 6555,
      "thetic": 6556,
      "ori": 6557,
      "itled": 6558,
      "ghost": 6559,
      "essential": 6560,
      "coin": 6561,
      "foss": 6562,
      "marl": 6563,
      "indo": 6564,
      "web": 6565,
      "oked": 6566,
      "norman": 6567,
      "fled": 6568,
      "carter": 6569,
      "annivers": 6570,
      "rell": 6571,
      "hore": 6572,
      "pointed": 6573,
      "showing": 6574,
      "hamilton": 6575,
      "ibility": 6576,
      "courts": 6577,
      "diameter": 6578,
      "winner": 6579,
      "1955": 6580,
      "nevertheless": 6581,
      "concerns": 6582,
      "surviving": 6583,
      "ivalent": 6584,
      "languages": 6585,
      "territories": 6586,
      "immediate": 6587,
      "surrounded": 6588,
      "audio": 6589,
      "rifle": 6590,
      "olympics": 6591,
      "constitution": 6592,
      "climate": 6593,
      "extreme": 6594,
      "windows": 6595,
      "tunnel": 6596,
      "argentina": 6597,
      "isolated": 6598,
      "sufficient": 6599,
      "municipal": 6600,
      "expansion": 6601,
      "3d": 6602,
      "63": 6603,
      "echo": 6604,
      "hag": 6605,
      "hann": 6606,
      "kid": 6607,
      "math": 6608,
      "ng": 6609,
      "wants": 6610,
      "yon": 6611,
      "chand": 6612,
      "deem": 6613,
      "detailed": 6614,
      "owen": 6615,
      "1900": 6616,
      "cles": 6617,
      "loan": 6618,
      "expo": 6619,
      "strate": 6620,
      "blu": 6621,
      "serial": 6622,
      "indicated": 6623,
      "compounds": 6624,
      "flat": 6625,
      "ryan": 6626,
      "ekān": 6627,
      "protests": 6628,
      "placing": 6629,
      "xture": 6630,
      "dipl": 6631,
      "1958": 6632,
      "heaven": 6633,
      "batter": 6634,
      "commonwealth": 6635,
      "graphs": 6636,
      "expensive": 6637,
      "banai": 6638,
      "giant": 6639,
      "approached": 6640,
      "institutions": 6641,
      "settled": 6642,
      "scientific": 6643,
      "encouraged": 6644,
      "beautiful": 6645,
      "crusad": 6646,
      "portrait": 6647,
      "inspiration": 6648,
      "satisf": 6649,
      "anniversary": 6650,
      "cular": 6651,
      "ee": 6652,
      "fate": 6653,
      "flower": 6654,
      "hl": 6655,
      "jere": 6656,
      "las": 6657,
      "ske": 6658,
      "tone": 6659,
      "wright": 6660,
      "ania": 6661,
      "stev": 6662,
      "orient": 6663,
      "roger": 6664,
      "lets": 6665,
      "sects": 6666,
      "aments": 6667,
      "admitted": 6668,
      "adjac": 6669,
      "deck": 6670,
      "lyn": 6671,
      "unusual": 6672,
      "implement": 6673,
      "teor": 6674,
      "tribut": 6675,
      "triple": 6676,
      "blow": 6677,
      "graf": 6678,
      "meg": 6679,
      "posit": 6680,
      "internal": 6681,
      "genetic": 6682,
      "understand": 6683,
      "1949": 6684,
      "1977": 6685,
      "treated": 6686,
      "videos": 6687,
      "designation": 6688,
      "sequel": 6689,
      "attempting": 6690,
      "donald": 6691,
      "equal": 6692,
      "crossed": 6693,
      "hoped": 6694,
      "counties": 6695,
      "suffering": 6696,
      "column": 6697,
      "lennon": 6698,
      "eggs": 6699,
      "cloud": 6700,
      "normally": 6701,
      "freedom": 6702,
      "93": 6703,
      "aa": 6704,
      "dc": 6705,
      "faster": 6706,
      "goffman": 6707,
      "hay": 6708,
      "oak": 6709,
      "pier": 6710,
      "pione": 6711,
      "ras": 6712,
      "sak": 6713,
      "sapr": 6714,
      "ívar": 6715,
      "republ": 6716,
      "orous": 6717,
      "arte": 6718,
      "assumed": 6719,
      "heat": 6720,
      "convoy": 6721,
      "aggress": 6722,
      "ctr": 6723,
      "commo": 6724,
      "compo": 6725,
      "absol": 6726,
      "shots": 6727,
      "prog": 6728,
      "prohib": 6729,
      "acknow": 6730,
      "hergé": 6731,
      "meteor": 6732,
      "jos": 6733,
      "cki": 6734,
      "airline": 6735,
      "fron": 6736,
      "genes": 6737,
      "symp": 6738,
      "relative": 6739,
      "medium": 6740,
      "jean": 6741,
      "identity": 6742,
      "transition": 6743,
      "footage": 6744,
      "communications": 6745,
      "strongly": 6746,
      "statistics": 6747,
      "concerned": 6748,
      "satur": 6749,
      "bolívar": 6750,
      "improve": 6751,
      "completion": 6752,
      "kilmer": 6753,
      "blocks": 6754,
      "duties": 6755,
      "cruisers": 6756,
      "hundreds": 6757,
      "possession": 6758,
      "janeiro": 6759,
      "wearing": 6760,
      "rhodes": 6761,
      "initiative": 6762,
      "environment": 6763,
      "pleasure": 6764,
      "indeed": 6765,
      "protagonist": 6766,
      "resources": 6767,
      "franchise": 6768,
      "saprang": 6769,
      "bac": 6770,
      "bce": 6771,
      "cater": 6772,
      "kim": 6773,
      "och": 6774,
      "pure": 6775,
      "tip": 6776,
      "wich": 6777,
      "infl": 6778,
      "insur": 6779,
      "anekān": 6780,
      "erog": 6781,
      "renew": 6782,
      "arg": 6783,
      "escort": 6784,
      "whel": 6785,
      "imo": 6786,
      "plus": 6787,
      "1910": 6788,
      "shor": 6789,
      "shif": 6790,
      "shakes": 6791,
      "isted": 6792,
      "prerog": 6793,
      "meets": 6794,
      "mega": 6795,
      "intense": 6796,
      "partly": 6797,
      "offs": 6798,
      "interpret": 6799,
      "cancer": 6800,
      "buck": 6801,
      "medal": 6802,
      "gerard": 6803,
      "poll": 6804,
      "generated": 6805,
      "ificial": 6806,
      "starling": 6807,
      "operate": 6808,
      "operating": 6809,
      "musicians": 6810,
      "mature": 6811,
      "1983": 6812,
      "diag": 6813,
      "defended": 6814,
      "naissance": 6815,
      "lawton": 6816,
      "parks": 6817,
      "factory": 6818,
      "concerts": 6819,
      "terminus": 6820,
      "attracted": 6821,
      "accused": 6822,
      "practices": 6823,
      "hospit": 6824,
      "richardson": 6825,
      "bledon": 6826,
      "trials": 6827,
      "debate": 6828,
      "behavior": 6829,
      "specimen": 6830,
      "cabin": 6831,
      "camera": 6832,
      "reconnaissance": 6833,
      "bridges": 6834,
      "easily": 6835,
      "doubt": 6836,
      "diamond": 6837,
      "georgia": 6838,
      "circumst": 6839,
      "wimbledon": 6840,
      "behaviour": 6841,
      "adjacent": 6842,
      "91": 6843,
      "cbs": 6844,
      "gri": 6845,
      "mam": 6846,
      "mers": 6847,
      "nad": 6848,
      "rons": 6849,
      "uct": 6850,
      "eric": 6851,
      "amph": 6852,
      "destruction": 6853,
      "convers": 6854,
      "congreg": 6855,
      "ayer": 6856,
      "agas": 6857,
      "compos": 6858,
      "opher": 6859,
      "modif": 6860,
      "aints": 6861,
      "umb": 6862,
      "manus": 6863,
      "ride": 6864,
      "ieved": 6865,
      "feather": 6866,
      "register": 6867,
      "amps": 6868,
      "understanding": 6869,
      "jeff": 6870,
      "recordings": 6871,
      "doctor": 6872,
      "publishing": 6873,
      "metall": 6874,
      "borne": 6875,
      "solution": 6876,
      "patron": 6877,
      "fallen": 6878,
      "falling": 6879,
      "effectively": 6880,
      "profit": 6881,
      "ministry": 6882,
      "representing": 6883,
      "influences": 6884,
      "cambridge": 6885,
      "reduce": 6886,
      "analy": 6887,
      "queens": 6888,
      "traveled": 6889,
      "administr": 6890,
      "printed": 6891,
      "spaces": 6892,
      "purchase": 6893,
      "sculpture": 6894,
      "korean": 6895,
      "dramatic": 6896,
      "parallel": 6897,
      "remnants": 6898,
      "somalia": 6899,
      "exhaust": 6900,
      "composer": 6901,
      "ders": 6902,
      "uous": 6903,
      "aniston": 6904,
      "recalled": 6905,
      "recovered": 6906,
      "sting": 6907,
      "isms": 6908,
      "itated": 6909,
      "tox": 6910,
      "chen": 6911,
      "sees": 6912,
      "elin": 6913,
      "heim": 6914,
      "convin": 6915,
      "context": 6916,
      "otic": 6917,
      "aviation": 6918,
      "astru": 6919,
      "overwhel": 6920,
      "keamy": 6921,
      "afterwards": 6922,
      "formally": 6923,
      "veer": 6924,
      "desert": 6925,
      "driving": 6926,
      "fert": 6927,
      "parish": 6928,
      "somewhat": 6929,
      "product": 6930,
      "matic": 6931,
      "perspect": 6932,
      "diet": 6933,
      "attacking": 6934,
      "stands": 6935,
      "household": 6936,
      "solar": 6937,
      "garc": 6938,
      "burgh": 6939,
      "graphics": 6940,
      "holiday": 6941,
      "1909": 6942,
      "netic": 6943,
      "meetings": 6944,
      "selection": 6945,
      "pitcher": 6946,
      "funds": 6947,
      "measures": 6948,
      "seemed": 6949,
      "responsibility": 6950,
      "throwing": 6951,
      "pupils": 6952,
      "architecture": 6953,
      "obtained": 6954,
      "hunting": 6955,
      "continental": 6956,
      "victims": 6957,
      "jesus": 6958,
      "encies": 6959,
      "kombat": 6960,
      "controversial": 6961,
      "restoration": 6962,
      "67": 6963,
      "bang": 6964,
      "cave": 6965,
      "gle": 6966,
      "gie": 6967,
      "gates": 6968,
      "sword": 6969,
      "slide": 6970,
      "vast": 6971,
      "wings": 6972,
      "thosaurus": 6973,
      "eries": 6974,
      "onso": 6975,
      "isle": 6976,
      "islam": 6977,
      "forth": 6978,
      "forcing": 6979,
      "igno": 6980,
      "ceme": 6981,
      "aga": 6982,
      "abund": 6983,
      "1912": 6984,
      "rescu": 6985,
      "propag": 6986,
      "crisis": 6987,
      "scatter": 6988,
      "lowest": 6989,
      "phr": 6990,
      "interaction": 6991,
      "fraser": 6992,
      "ensis": 6993,
      "poland": 6994,
      "divor": 6995,
      "numbered": 6996,
      "origins": 6997,
      "rows": 6998,
      "covers": 6999,
      "johnston": 7000,
      "township": 7001,
      "goddess": 7002,
      "germans": 7003,
      "communication": 7004,
      "productions": 7005,
      "1931": 7006,
      "1935": 7007,
      "destroyer": 7008,
      "panel": 7009,
      "praise": 7010,
      "researchers": 7011,
      "stayed": 7012,
      "institution": 7013,
      "hosted": 7014,
      "arabic": 7015,
      "linked": 7016,
      "circulation": 7017,
      "preserved": 7018,
      "deployed": 7019,
      "opposite": 7020,
      "distinguished": 7021,
      "passengers": 7022,
      "rebels": 7023,
      "plunketts": 7024,
      "corythosaurus": 7025,
      "stevens": 7026,
      "shakespe": 7027,
      "82": 7028,
      "bun": 7029,
      "bapt": 7030,
      "dish": 7031,
      "fia": 7032,
      "hid": 7033,
      "lists": 7034,
      "má": 7035,
      "mail": 7036,
      "nintend": 7037,
      "rav": 7038,
      "sad": 7039,
      "sisters": 7040,
      "tong": 7041,
      "income": 7042,
      "inaug": 7043,
      "stro": 7044,
      "stol": 7045,
      "icate": 7046,
      "amino": 7047,
      "bearing": 7048,
      "olay": 7049,
      "agan": 7050,
      "abilities": 7051,
      "1911": 7052,
      "artificial": 7053,
      "fei": 7054,
      "aws": 7055,
      "lith": 7056,
      "disaster": 7057,
      "monuments": 7058,
      "gross": 7059,
      "charged": 7060,
      "archbishop": 7061,
      "consol": 7062,
      "generals": 7063,
      "hypo": 7064,
      "junior": 7065,
      "returns": 7066,
      "defences": 7067,
      "niel": 7068,
      "1932": 7069,
      "limit": 7070,
      "trading": 7071,
      "palmy": 7072,
      "programme": 7073,
      "crosses": 7074,
      "choir": 7075,
      "judge": 7076,
      "difficulties": 7077,
      "bombard": 7078,
      "exception": 7079,
      "equipped": 7080,
      "garden": 7081,
      "carrying": 7082,
      "elsewhere": 7083,
      "stanley": 7084,
      "infrastru": 7085,
      "alpha": 7086,
      "hockey": 7087,
      "marlborough": 7088,
      "prerogative": 7089,
      "shakespeare": 7090,
      "nintendo": 7091,
      "99": 7092,
      "baker": 7093,
      "kong": 7094,
      "lig": 7095,
      "lies": 7096,
      "pig": 7097,
      "tight": 7098,
      "wag": 7099,
      "cha": 7100,
      "ambass": 7101,
      "elabor": 7102,
      "impression": 7103,
      "impossible": 7104,
      "owie": 7105,
      "consum": 7106,
      "confeder": 7107,
      "idae": 7108,
      "sugar": 7109,
      "comments": 7110,
      "abd": 7111,
      "1921": 7112,
      "1929": 7113,
      "aki": 7114,
      "geoff": 7115,
      "noon": 7116,
      "marc": 7117,
      "otherwise": 7118,
      "crest": 7119,
      "internet": 7120,
      "canter": 7121,
      "fles": 7122,
      "draf": 7123,
      "surpr": 7124,
      "barr": 7125,
      "obser": 7126,
      "depict": 7127,
      "140": 7128,
      "casting": 7129,
      "horiz": 7130,
      "glad": 7131,
      "aska": 7132,
      "voiced": 7133,
      "universal": 7134,
      "villages": 7135,
      "lawrence": 7136,
      "switch": 7137,
      "burning": 7138,
      "extin": 7139,
      "promote": 7140,
      "texts": 7141,
      "biograph": 7142,
      "defeating": 7143,
      "pitman": 7144,
      "intensified": 7145,
      "occasions": 7146,
      "voted": 7147,
      "thousand": 7148,
      "environmental": 7149,
      "pushed": 7150,
      "princess": 7151,
      "arrested": 7152,
      "legislation": 7153,
      "supporters": 7154,
      "elizabeth": 7155,
      "netherlands": 7156,
      "diplom": 7157,
      "manuscri": 7158,
      "ients": 7159,
      "jar": 7160,
      "lia": 7161,
      "nan": 7162,
      "pas": 7163,
      "pink": 7164,
      "rar": 7165,
      "sab": 7166,
      "wives": 7167,
      "án": 7168,
      "stick": 7169,
      "arr": 7170,
      "aria": 7171,
      "ician": 7172,
      "amaz": 7173,
      "ili": 7174,
      "acle": 7175,
      "accompany": 7176,
      "omin": 7177,
      "beet": 7178,
      "unsuccessful": 7179,
      "cement": 7180,
      "ctic": 7181,
      "etime": 7182,
      "ester": 7183,
      "twin": 7184,
      "earl": 7185,
      "corner": 7186,
      "margin": 7187,
      "charity": 7188,
      "cars": 7189,
      "mayor": 7190,
      "doctr": 7191,
      "raise": 7192,
      "retained": 7193,
      "products": 7194,
      "1962": 7195,
      "treas": 7196,
      "streak": 7197,
      "collect": 7198,
      "1959": 7199,
      "periods": 7200,
      "1938": 7201,
      "quez": 7202,
      "posted": 7203,
      "equivalent": 7204,
      "involving": 7205,
      "atlanta": 7206,
      "appointment": 7207,
      "closer": 7208,
      "biographer": 7209,
      "observatory": 7210,
      "caval": 7211,
      "objects": 7212,
      "drums": 7213,
      "joining": 7214,
      "tribute": 7215,
      "criminal": 7216,
      "convention": 7217,
      "vessels": 7218,
      "sleep": 7219,
      "resistance": 7220,
      "survivors": 7221,
      "cambodia": 7222,
      "preferred": 7223,
      "stefani": 7224,
      "catech": 7225,
      "batsman": 7226,
      "garcía": 7227,
      "cemetery": 7228,
      "bach": 7229,
      "cod": 7230,
      "gary": 7231,
      "hull": 7232,
      "iant": 7233,
      "oct": 7234,
      "informed": 7235,
      "thes": 7236,
      "onica": 7237,
      "retr": 7238,
      "recur": 7239,
      "represents": 7240,
      "ensure": 7241,
      "stab": 7242,
      "iso": 7243,
      "chant": 7244,
      "wasp": 7245,
      "convict": 7246,
      "utz": 7247,
      "util": 7248,
      "ifies": 7249,
      "brick": 7250,
      "notably": 7251,
      "blaz": 7252,
      "overseas": 7253,
      "owners": 7254,
      "temples": 7255,
      "mediter": 7256,
      "subspecies": 7257,
      "hob": 7258,
      "iously": 7259,
      "caes": 7260,
      "causes": 7261,
      "musician": 7262,
      "matters": 7263,
      "helic": 7264,
      "passion": 7265,
      "considers": 7266,
      "wonder": 7267,
      "grammy": 7268,
      "radiation": 7269,
      "latex": 7270,
      "styles": 7271,
      "criticised": 7272,
      "needs": 7273,
      "doesn": 7274,
      "committed": 7275,
      "laboratory": 7276,
      "reveals": 7277,
      "housing": 7278,
      "visitors": 7279,
      "moments": 7280,
      "dominican": 7281,
      "aerith": 7282,
      "saved": 7283,
      "spiritual": 7284,
      "apparently": 7285,
      "1920s": 7286,
      "collaboration": 7287,
      "narrative": 7288,
      "proposal": 7289,
      "palestine": 7290,
      "democratic": 7291,
      "dialogue": 7292,
      "phillies": 7293,
      "convection": 7294,
      "absence": 7295,
      "exposure": 7296,
      "modified": 7297,
      "canterbury": 7298,
      "mediterranean": 7299,
      "aš": 7300,
      "bag": 7301,
      "ml": 7302,
      "mak": 7303,
      "nap": 7304,
      "sale": 7305,
      "saves": 7306,
      "tis": 7307,
      "u2": 7308,
      "vig": 7309,
      "thews": 7310,
      "tool": 7311,
      "rod": 7312,
      "iling": 7313,
      "impl": 7314,
      "suic": 7315,
      "trick": 7316,
      "ression": 7317,
      "manga": 7318,
      "perce": 7319,
      "crush": 7320,
      "ports": 7321,
      "canyon": 7322,
      "shipping": 7323,
      "fernand": 7324,
      "grown": 7325,
      "frig": 7326,
      "regist": 7327,
      "warning": 7328,
      "followers": 7329,
      "submarine": 7330,
      "15th": 7331,
      "markgraf": 7332,
      "skull": 7333,
      "caster": 7334,
      "bands": 7335,
      "listen": 7336,
      "listing": 7337,
      "nik": 7338,
      "suggesting": 7339,
      "jackrab": 7340,
      "representative": 7341,
      "stationed": 7342,
      "expand": 7343,
      "refers": 7344,
      "platoon": 7345,
      "colorado": 7346,
      "extension": 7347,
      "journalist": 7348,
      "krak": 7349,
      "lbw": 7350,
      "imagine": 7351,
      "throne": 7352,
      "raffles": 7353,
      "trouble": 7354,
      "installed": 7355,
      "rhythm": 7356,
      "furtado": 7357,
      "republican": 7358,
      "helicop": 7359,
      "92": 7360,
      "bits": 7361,
      "gers": 7362,
      "hok": 7363,
      "lind": 7364,
      "mint": 7365,
      "nl": 7366,
      "rants": 7367,
      "tag": 7368,
      "yce": 7369,
      "zi": 7370,
      "innov": 7371,
      "remember": 7372,
      "alu": 7373,
      "asian": 7374,
      "icit": 7375,
      "deleg": 7376,
      "impressed": 7377,
      "igation": 7378,
      "trained": 7379,
      "abled": 7380,
      "shut": 7381,
      "sholay": 7382,
      "resign": 7383,
      "lob": 7384,
      "lose": 7385,
      "expression": 7386,
      "sover": 7387,
      "persu": 7388,
      "code": 7389,
      "bore": 7390,
      "actual": 7391,
      "crake": 7392,
      "keys": 7393,
      "aftermath": 7394,
      "format": 7395,
      "displays": 7396,
      "okes": 7397,
      "engines": 7398,
      "annually": 7399,
      "thereafter": 7400,
      "cape": 7401,
      "barker": 7402,
      "170": 7403,
      "depending": 7404,
      "valky": 7405,
      "waterfall": 7406,
      "directors": 7407,
      "purposes": 7408,
      "ranges": 7409,
      "extent": 7410,
      "ullen": 7411,
      "mexican": 7412,
      "predators": 7413,
      "networks": 7414,
      "altern": 7415,
      "materials": 7416,
      "poorly": 7417,
      "occupation": 7418,
      "nhl": 7419,
      "reservo": 7420,
      "ultimate": 7421,
      "sacred": 7422,
      "vehicle": 7423,
      "option": 7424,
      "ustaš": 7425,
      "onomy": 7426,
      "happened": 7427,
      "cotton": 7428,
      "recovery": 7429,
      "muscaria": 7430,
      "74": 7431,
      "dawn": 7432,
      "ees": 7433,
      "easy": 7434,
      "fus": 7435,
      "hg": 7436,
      "jet": 7437,
      "pad": 7438,
      "sper": 7439,
      "tide": 7440,
      "ww": 7441,
      "ware": 7442,
      "rebell": 7443,
      "entitled": 7444,
      "eless": 7445,
      "det": 7446,
      "wiś": 7447,
      "withdrew": 7448,
      "ager": 7449,
      "apy": 7450,
      "trac": 7451,
      "mored": 7452,
      "peck": 7453,
      "ifer": 7454,
      "coins": 7455,
      "brush": 7456,
      "achu": 7457,
      "driver": 7458,
      "driven": 7459,
      "writings": 7460,
      "starlings": 7461,
      "caa": 7462,
      "1940s": 7463,
      "useful": 7464,
      "talking": 7465,
      "maggie": 7466,
      "childhood": 7467,
      "organised": 7468,
      "garian": 7469,
      "niowie": 7470,
      "fried": 7471,
      "claiming": 7472,
      "factors": 7473,
      "richmond": 7474,
      "looks": 7475,
      "representatives": 7476,
      "influential": 7477,
      "cope": 7478,
      "fifa": 7479,
      "munition": 7480,
      "telling": 7481,
      "watching": 7482,
      "situated": 7483,
      "layer": 7484,
      "models": 7485,
      "injuries": 7486,
      "adventures": 7487,
      "robin": 7488,
      "opportunities": 7489,
      "advertising": 7490,
      "excavation": 7491,
      "publisher": 7492,
      "vati": 7493,
      "substantial": 7494,
      "simultaneously": 7495,
      "infrastructure": 7496,
      "fusion": 7497,
      "kann": 7498,
      "mates": 7499,
      "oys": 7500,
      "pp": 7501,
      "vander": 7502,
      "thesis": 7503,
      "anthem": 7504,
      "anime": 7505,
      "chev": 7506,
      "ammunition": 7507,
      "eline": 7508,
      "agar": 7509,
      "usage": 7510,
      "moore": 7511,
      "movements": 7512,
      "1928": 7513,
      "uting": 7514,
      "emor": 7515,
      "excess": 7516,
      "ishment": 7517,
      "derf": 7518,
      "commemor": 7519,
      "partially": 7520,
      "norway": 7521,
      "shear": 7522,
      "flies": 7523,
      "parvati": 7524,
      "gosl": 7525,
      "relations": 7526,
      "ogical": 7527,
      "setts": 7528,
      "surge": 7529,
      "severely": 7530,
      "membr": 7531,
      "originated": 7532,
      "classification": 7533,
      "personality": 7534,
      "historically": 7535,
      "victories": 7536,
      "funer": 7537,
      "burned": 7538,
      "bique": 7539,
      "copy": 7540,
      "massachu": 7541,
      "interests": 7542,
      "giants": 7543,
      "fundament": 7544,
      "spores": 7545,
      "spoke": 7546,
      "scriptions": 7547,
      "platform": 7548,
      "properties": 7549,
      "athletics": 7550,
      "portugal": 7551,
      "israeli": 7552,
      "pagan": 7553,
      "instruments": 7554,
      "struggle": 7555,
      "ordinary": 7556,
      "thinking": 7557,
      "iveness": 7558,
      "réunion": 7559,
      "plateau": 7560,
      "wrestling": 7561,
      "gwen": 7562,
      "anekāntav": 7563,
      "circumstances": 7564,
      "wiśniowie": 7565,
      "massachusetts": 7566,
      "86": 7567,
      "900": 7568,
      "dat": 7569,
      "hamp": 7570,
      "khand": 7571,
      "lud": 7572,
      "sans": 7573,
      "wu": 7574,
      "inian": 7575,
      "rets": 7576,
      "stell": 7577,
      "armored": 7578,
      "roth": 7579,
      "chase": 7580,
      "ilst": 7581,
      "whilst": 7582,
      "heera": 7583,
      "usd": 7584,
      "plas": 7585,
      "1927": 7586,
      "shield": 7587,
      "prove": 7588,
      "poison": 7589,
      "afric": 7590,
      "twins": 7591,
      "asser": 7592,
      "price": 7593,
      "intent": 7594,
      "prefect": 7595,
      "weigh": 7596,
      "creative": 7597,
      "interpre": 7598,
      "engage": 7599,
      "carved": 7600,
      "understood": 7601,
      "anyone": 7602,
      "mixture": 7603,
      "raaf": 7604,
      "miller": 7605,
      "organisation": 7606,
      "aliers": 7607,
      "garrison": 7608,
      "amongst": 7609,
      "hurricanes": 7610,
      "everyone": 7611,
      "sung": 7612,
      "circu": 7613,
      "wilson": 7614,
      "survive": 7615,
      "departure": 7616,
      "biggest": 7617,
      "closure": 7618,
      "conduct": 7619,
      "boxing": 7620,
      "establishing": 7621,
      "loud": 7622,
      "emergency": 7623,
      "itzer": 7624,
      "shells": 7625,
      "scrap": 7626,
      "founder": 7627,
      "restricted": 7628,
      "eaton": 7629,
      "bulls": 7630,
      "swedish": 7631,
      "yugosl": 7632,
      "affairs": 7633,
      "patty": 7634,
      "seventeen": 7635,
      "acknowled": 7636,
      "ustaše": 7637,
      "kannada": 7638,
      "anekāntavāda": 7639,
      "84": 7640,
      "celt": 7641,
      "caves": 7642,
      "gap": 7643,
      "jr": 7644,
      "kau": 7645,
      "mack": 7646,
      "oing": 7647,
      "pes": 7648,
      "rand": 7649,
      "rquez": 7650,
      "tack": 7651,
      "vn": 7652,
      "vation": 7653,
      "inju": 7654,
      "encing": 7655,
      "assu": 7656,
      "isa": 7657,
      "forty": 7658,
      "wasn": 7659,
      "univer": 7660,
      "aya": 7661,
      "veronica": 7662,
      "allen": 7663,
      "shock": 7664,
      "residence": 7665,
      "resigned": 7666,
      "brain": 7667,
      "herald": 7668,
      "spend": 7669,
      "spons": 7670,
      "blues": 7671,
      "gry": 7672,
      "grave": 7673,
      "marry": 7674,
      "kees": 7675,
      "paraly": 7676,
      "howe": 7677,
      "westward": 7678,
      "stewart": 7679,
      "divers": 7680,
      "downtown": 7681,
      "trek": 7682,
      "offices": 7683,
      "readers": 7684,
      "restored": 7685,
      "midge": 7686,
      "dense": 7687,
      "asks": 7688,
      "slip": 7689,
      "1957": 7690,
      "1933": 7691,
      "burial": 7692,
      "instance": 7693,
      "formerly": 7694,
      "fifteen": 7695,
      "interesting": 7696,
      "experiences": 7697,
      "honour": 7698,
      "cules": 7699,
      "oxy": 7700,
      "documents": 7701,
      "nationally": 7702,
      "premiered": 7703,
      "corporation": 7704,
      "compete": 7705,
      "zoo": 7706,
      "pictures": 7707,
      "advertis": 7708,
      "techniques": 7709,
      "tanks": 7710,
      "simpson": 7711,
      "graduate": 7712,
      "false": 7713,
      "delayed": 7714,
      "terrorist": 7715,
      "crops": 7716,
      "wicca": 7717,
      "reinforcements": 7718,
      "phoenix": 7719,
      "citizens": 7720,
      "márquez": 7721,
      "khandoba": 7722,
      "07": 7723,
      "113": 7724,
      "bn": 7725,
      "bones": 7726,
      "cant": 7727,
      "cous": 7728,
      "cott": 7729,
      "dies": 7730,
      "dak": 7731,
      "dah": 7732,
      "frel": 7733,
      "gren": 7734,
      "ique": 7735,
      "jur": 7736,
      "kö": 7737,
      "mall": 7738,
      "mcl": 7739,
      "mbar": 7740,
      "pistol": 7741,
      "sop": 7742,
      "wrap": 7743,
      "zes": 7744,
      "inhg": 7745,
      "thered": 7746,
      "remarked": 7747,
      "leigh": 7748,
      "ilation": 7749,
      "detro": 7750,
      "olith": 7751,
      "imprison": 7752,
      "shaw": 7753,
      "peach": 7754,
      "clar": 7755,
      "costs": 7756,
      "brill": 7757,
      "brace": 7758,
      "compound": 7759,
      "pressing": 7760,
      "josh": 7761,
      "drain": 7762,
      "warren": 7763,
      "cleared": 7764,
      "ologies": 7765,
      "cyto": 7766,
      "designs": 7767,
      "approval": 7768,
      "differences": 7769,
      "21st": 7770,
      "moderate": 7771,
      "toronto": 7772,
      "sounds": 7773,
      "bald": 7774,
      "clearly": 7775,
      "ndh": 7776,
      "refu": 7777,
      "circle": 7778,
      "armament": 7779,
      "select": 7780,
      "recognised": 7781,
      "measured": 7782,
      "achieve": 7783,
      "susp": 7784,
      "martial": 7785,
      "frustr": 7786,
      "application": 7787,
      "audiences": 7788,
      "keeping": 7789,
      "favorable": 7790,
      "scientists": 7791,
      "weapon": 7792,
      "fatal": 7793,
      "jacob": 7794,
      "preparation": 7795,
      "illustrated": 7796,
      "thrill": 7797,
      "feeding": 7798,
      "resolution": 7799,
      "benefit": 7800,
      "minimum": 7801,
      "skills": 7802,
      "mulder": 7803,
      "jurchen": 7804,
      "retirement": 7805,
      "hudson": 7806,
      "mozambique": 7807,
      "saturday": 7808,
      "convinced": 7809,
      "lithuan": 7810,
      "catechism": 7811,
      "universe": 7812,
      "frelimo": 7813,
      "detroit": 7814,
      "bind": 7815,
      "dwar": 7816,
      "hans": 7817,
      "iate": 7818,
      "kansas": 7819,
      "rant": 7820,
      "sas": 7821,
      "zom": 7822,
      "ani": 7823,
      "remark": 7824,
      "chrom": 7825,
      "enters": 7826,
      "beam": 7827,
      "concess": 7828,
      "condem": 7829,
      "agement": 7830,
      "apers": 7831,
      "abby": 7832,
      "clip": 7833,
      "ett": 7834,
      "artwork": 7835,
      "astro": 7836,
      "acked": 7837,
      "boot": 7838,
      "kevin": 7839,
      "scap": 7840,
      "commons": 7841,
      "ocy": 7842,
      "1850": 7843,
      "gery": 7844,
      "barry": 7845,
      "elections": 7846,
      "starred": 7847,
      "presentation": 7848,
      "depicts": 7849,
      "powered": 7850,
      "defending": 7851,
      "magdal": 7852,
      "characterized": 7853,
      "promised": 7854,
      "ranging": 7855,
      "tooth": 7856,
      "huge": 7857,
      "variation": 7858,
      "satell": 7859,
      "archaeologist": 7860,
      "altered": 7861,
      "violent": 7862,
      "boundary": 7863,
      "objective": 7864,
      "badly": 7865,
      "frequent": 7866,
      "expert": 7867,
      "scully": 7868,
      "revolutionary": 7869,
      "victorian": 7870,
      "suitable": 7871,
      "russia": 7872,
      "ethnic": 7873,
      "voyage": 7874,
      "excavations": 7875,
      "mechanical": 7876,
      "cubs": 7877,
      "tactics": 7878,
      "gilbert": 7879,
      "philosophy": 7880,
      "coleman": 7881,
      "appropriate": 7882,
      "scheme": 7883,
      "wiśniowiecki": 7884,
      "dave": 7885,
      "hast": 7886,
      "hong": 7887,
      "ibar": 7888,
      "nings": 7889,
      "oscar": 7890,
      "pel": 7891,
      "inno": 7892,
      "inscription": 7893,
      "remo": 7894,
      "roots": 7895,
      "ela": 7896,
      "determ": 7897,
      "una": 7898,
      "het": 7899,
      "ague": 7900,
      "ables": 7901,
      "1926": 7902,
      "pest": 7903,
      "ressing": 7904,
      "excell": 7905,
      "akum": 7906,
      "string": 7907,
      "intelle": 7908,
      "attained": 7909,
      "displayed": 7910,
      "angular": 7911,
      "jobs": 7912,
      "gros": 7913,
      "gov": 7914,
      "regiments": 7915,
      "carl": 7916,
      "carp": 7917,
      "buy": 7918,
      "steep": 7919,
      "cide": 7920,
      "eleph": 7921,
      "describe": 7922,
      "hamlet": 7923,
      "aide": 7924,
      "ibi": 7925,
      "persian": 7926,
      "publications": 7927,
      "deput": 7928,
      "decides": 7929,
      "designer": 7930,
      "magnetic": 7931,
      "blacks": 7932,
      "striking": 7933,
      "jackets": 7934,
      "heroes": 7935,
      "closest": 7936,
      "davis": 7937,
      "ranking": 7938,
      "arriving": 7939,
      "assisted": 7940,
      "quarterback": 7941,
      "bulk": 7942,
      "duty": 7943,
      "mrs": 7944,
      "rupted": 7945,
      "protestant": 7946,
      "vote": 7947,
      "schedule": 7948,
      "revival": 7949,
      "qualified": 7950,
      "smooth": 7951,
      "opponent": 7952,
      "nurse": 7953,
      "alleged": 7954,
      "prompted": 7955,
      "magnitude": 7956,
      "retreat": 7957,
      "residential": 7958,
      "predecessor": 7959,
      "discipl": 7960,
      "inhabitants": 7961,
      "valuable": 7962,
      "deemed": 7963,
      "strategy": 7964,
      "diagno": 7965,
      "feathers": 7966,
      "ambassador": 7967,
      "cavalry": 7968,
      "hokies": 7969,
      "determine": 7970,
      "intellect": 7971,
      "05": 7972,
      "cow": 7973,
      "gem": 7974,
      "hin": 7975,
      "haz": 7976,
      "kam": 7977,
      "kne": 7978,
      "krit": 7979,
      "laugh": 7980,
      "mitch": 7981,
      "pill": 7982,
      "punt": 7983,
      "wre": 7984,
      "inum": 7985,
      "rene": 7986,
      "edges": 7987,
      "atop": 7988,
      "atively": 7989,
      "stim": 7990,
      "aside": 7991,
      "isbn": 7992,
      "chain": 7993,
      "chagas": 7994,
      "amid": 7995,
      "acles": 7996,
      "beau": 7997,
      "degre": 7998,
      "whit": 7999,
      "owed": 8000,
      "comics": 8001,
      "trio": 8002,
      "ulu": 8003,
      "neth": 8004,
      "nebr": 8005,
      "shi": 8006,
      "erected": 8007,
      "outbreak": 8008,
      "updated": 8009,
      "uding": 8010,
      "strict": 8011,
      "spher": 8012,
      "spots": 8013,
      "dual": 8014,
      "scope": 8015,
      "ignment": 8016,
      "centers": 8017,
      "cancell": 8018,
      "drug": 8019,
      "mines": 8020,
      "tenth": 8021,
      "mathews": 8022,
      "leslie": 8023,
      "releases": 8024,
      "hoo": 8025,
      "belg": 8026,
      "decay": 8027,
      "magad": 8028,
      "walking": 8029,
      "commandment": 8030,
      "considering": 8031,
      "gets": 8032,
      "difference": 8033,
      "explains": 8034,
      "tourist": 8035,
      "malley": 8036,
      "swim": 8037,
      "testing": 8038,
      "structural": 8039,
      "highways": 8040,
      "cruise": 8041,
      "1905": 8042,
      "ruling": 8043,
      "turks": 8044,
      "machines": 8045,
      "respective": 8046,
      "argues": 8047,
      "amounts": 8048,
      "kelly": 8049,
      "definition": 8050,
      "budd": 8051,
      "beaten": 8052,
      "dominant": 8053,
      "waiting": 8054,
      "settlements": 8055,
      "newspapers": 8056,
      "globe": 8057,
      "liberal": 8058,
      "jonathan": 8059,
      "strengthened": 8060,
      "brooks": 8061,
      "cinema": 8062,
      "adaptation": 8063,
      "exclusively": 8064,
      "batteries": 8065,
      "perspective": 8066,
      "wagner": 8067,
      "arrive": 8068,
      "valkyria": 8069,
      "injured": 8070,
      "paralymp": 8071,
      "refuge": 8072,
      "dwarf": 8073,
      "degrees": 8074,
      "68": 8075,
      "bren": 8076,
      "cass": 8077,
      "dick": 8078,
      "iest": 8079,
      "mg": 8080,
      "nash": 8081,
      "qi": 8082,
      "send": 8083,
      "inscriptions": 8084,
      "rec": 8085,
      "resumed": 8086,
      "ension": 8087,
      "stores": 8088,
      "iser": 8089,
      "toll": 8090,
      "icon": 8091,
      "icity": 8092,
      "oul": 8093,
      "ilty": 8094,
      "deity": 8095,
      "urs": 8096,
      "olia": 8097,
      "consequ": 8098,
      "prosecut": 8099,
      "emmy": 8100,
      "artistic": 8101,
      "exists": 8102,
      "exposed": 8103,
      "iped": 8104,
      "herze": 8105,
      "landings": 8106,
      "disappeared": 8107,
      "paran": 8108,
      "minster": 8109,
      "charm": 8110,
      "uefa": 8111,
      "mathem": 8112,
      "visiting": 8113,
      "northward": 8114,
      "wells": 8115,
      "lanes": 8116,
      "balls": 8117,
      "metre": 8118,
      "runners": 8119,
      "lights": 8120,
      "talent": 8121,
      "deliber": 8122,
      "reader": 8123,
      "handled": 8124,
      "slop": 8125,
      "furthermore": 8126,
      "bertin": 8127,
      "tested": 8128,
      "basement": 8129,
      "profile": 8130,
      "fifty": 8131,
      "liner": 8132,
      "consistent": 8133,
      "crews": 8134,
      "premiere": 8135,
      "celebrated": 8136,
      "northeastern": 8137,
      "steps": 8138,
      "investigation": 8139,
      "distinctive": 8140,
      "chronicles": 8141,
      "manufactur": 8142,
      "defenders": 8143,
      "banned": 8144,
      "scattered": 8145,
      "suicide": 8146,
      "stellar": 8147,
      "celtic": 8148,
      "olithic": 8149,
      "govina": 8150,
      "nebraska": 8151,
      "magadheera": 8152,
      "08": 8153,
      "dens": 8154,
      "ecol": 8155,
      "fc": 8156,
      "hub": 8157,
      "kon": 8158,
      "tat": 8159,
      "tut": 8160,
      "ugu": 8161,
      "vit": 8162,
      "wander": 8163,
      "inje": 8164,
      "inhab": 8165,
      "orph": 8166,
      "alfred": 8167,
      "asom": 8168,
      "rook": 8169,
      "oux": 8170,
      "adier": 8171,
      "oming": 8172,
      "bears": 8173,
      "urally": 8174,
      "uncertain": 8175,
      "apol": 8176,
      "trium": 8177,
      "avo": 8178,
      "abc": 8179,
      "1925": 8180,
      "1924": 8181,
      "peters": 8182,
      "peaking": 8183,
      "proportion": 8184,
      "umn": 8185,
      "eties": 8186,
      "berry": 8187,
      "enden": 8188,
      "gran": 8189,
      "noble": 8190,
      "pryce": 8191,
      "guin": 8192,
      "guilty": 8193,
      "inton": 8194,
      "liqu": 8195,
      "weir": 8196,
      "disband": 8197,
      "okovic": 8198,
      "angle": 8199,
      "canon": 8200,
      "cargo": 8201,
      "carmel": 8202,
      "pute": 8203,
      "memor": 8204,
      "houston": 8205,
      "dams": 8206,
      "valent": 8207,
      "harold": 8208,
      "bases": 8209,
      "referring": 8210,
      "trophy": 8211,
      "sunk": 8212,
      "turrets": 8213,
      "madrid": 8214,
      "1890": 8215,
      "demands": 8216,
      "magazines": 8217,
      "predomin": 8218,
      "employment": 8219,
      "murray": 8220,
      "executed": 8221,
      "fitted": 8222,
      "prevented": 8223,
      "djokovic": 8224,
      "tournaments": 8225,
      "delivery": 8226,
      "southeastern": 8227,
      "initiated": 8228,
      "demonstrated": 8229,
      "tavruli": 8230,
      "pursue": 8231,
      "vulcan": 8232,
      "yankees": 8233,
      "assassination": 8234,
      "substitute": 8235,
      "meteorological": 8236,
      "nielsen": 8237,
      "circuit": 8238,
      "herzegovina": 8239,
      "asomtavruli": 8240,
      "1000": 8241,
      "aii": 8242,
      "bh": 8243,
      "dud": 8244,
      "dale": 8245,
      "diction": 8246,
      "fits": 8247,
      "ffield": 8248,
      "iated": 8249,
      "mend": 8250,
      "nit": 8251,
      "nut": 8252,
      "phe": 8253,
      "pounds": 8254,
      "tub": 8255,
      "vs": 8256,
      "xi": 8257,
      "yam": 8258,
      "anag": 8259,
      "stere": 8260,
      "inge": 8261,
      "sect": 8262,
      "eland": 8263,
      "acute": 8264,
      "omar": 8265,
      "deg": 8266,
      "consc": 8267,
      "congo": 8268,
      "neath": 8269,
      "pete": 8270,
      "umber": 8271,
      "manuel": 8272,
      "quant": 8273,
      "coord": 8274,
      "reduc": 8275,
      "brack": 8276,
      "feels": 8277,
      "boss": 8278,
      "spor": 8279,
      "afternoon": 8280,
      "portions": 8281,
      "ptions": 8282,
      "scand": 8283,
      "anglo": 8284,
      "speaker": 8285,
      "gos": 8286,
      "tennes": 8287,
      "carre": 8288,
      "hook": 8289,
      "osex": 8290,
      "obvious": 8291,
      "effic": 8292,
      "helium": 8293,
      "succeed": 8294,
      "runway": 8295,
      "ibis": 8296,
      "ideal": 8297,
      "sixteen": 8298,
      "valve": 8299,
      "sket": 8300,
      "commandos": 8301,
      "realized": 8302,
      "1934": 8303,
      "tours": 8304,
      "posts": 8305,
      "balance": 8306,
      "bible": 8307,
      "madison": 8308,
      "rays": 8309,
      "territorial": 8310,
      "melody": 8311,
      "conclusion": 8312,
      "jews": 8313,
      "employees": 8314,
      "hostile": 8315,
      "discuss": 8316,
      "assembled": 8317,
      "lamb": 8318,
      "hawaii": 8319,
      "subjects": 8320,
      "indicating": 8321,
      "adopt": 8322,
      "eshmun": 8323,
      "kirk": 8324,
      "evolution": 8325,
      "translation": 8326,
      "warrior": 8327,
      "phrase": 8328,
      "suspended": 8329,
      "satellite": 8330,
      "tennessee": 8331,
      "83": 8332,
      "cen": 8333,
      "dot": 8334,
      "etr": 8335,
      "fing": 8336,
      "gib": 8337,
      "gift": 8338,
      "hes": 8339,
      "nen": 8340,
      "oto": 8341,
      "oreg": 8342,
      "sof": 8343,
      "ube": 8344,
      "yield": 8345,
      "intim": 8346,
      "onia": 8347,
      "rebuilt": 8348,
      "enzy": 8349,
      "stav": 8350,
      "alo": 8351,
      "assum": 8352,
      "toured": 8353,
      "leton": 8354,
      "amb": 8355,
      "eler": 8356,
      "oma": 8357,
      "depos": 8358,
      "owa": 8359,
      "byr": 8360,
      "comfort": 8361,
      "trig": 8362,
      "mosqu": 8363,
      "soc": 8364,
      "aux": 8365,
      "eller": 8366,
      "mariana": 8367,
      "veter": 8368,
      "scout": 8369,
      "deser": 8370,
      "evans": 8371,
      "sheffield": 8372,
      "colleagues": 8373,
      "adequ": 8374,
      "parade": 8375,
      "paramount": 8376,
      "goat": 8377,
      "underneath": 8378,
      "juven": 8379,
      "supplement": 8380,
      "receives": 8381,
      "venues": 8382,
      "signs": 8383,
      "porter": 8384,
      "valid": 8385,
      "walker": 8386,
      "harbour": 8387,
      "ordering": 8388,
      "ontario": 8389,
      "sentiment": 8390,
      "swiss": 8391,
      "factor": 8392,
      "federation": 8393,
      "putting": 8394,
      "seeking": 8395,
      "supervis": 8396,
      "concern": 8397,
      "romanian": 8398,
      "programming": 8399,
      "biological": 8400,
      "presidential": 8401,
      "1908": 8402,
      "culmin": 8403,
      "riding": 8404,
      "certainly": 8405,
      "jamin": 8406,
      "potentially": 8407,
      "reveal": 8408,
      "theatrical": 8409,
      "credit": 8410,
      "sorra": 8411,
      "wait": 8412,
      "chemist": 8413,
      "requested": 8414,
      "puppet": 8415,
      "conservative": 8416,
      "withdrawal": 8417,
      "architectural": 8418,
      "pretty": 8419,
      "measurements": 8420,
      "translated": 8421,
      "lumber": 8422,
      "kurt": 8423,
      "eliminated": 8424,
      "psych": 8425,
      "orchestra": 8426,
      "components": 8427,
      "chevaliers": 8428,
      "reducing": 8429,
      "oregon": 8430,
      "02": 8431,
      "09": 8432,
      "bare": 8433,
      "bah": 8434,
      "eign": 8435,
      "gud": 8436,
      "hut": 8437,
      "ket": 8438,
      "lakes": 8439,
      "oples": 8440,
      "pound": 8441,
      "rud": 8442,
      "yd": 8443,
      "zinc": 8444,
      "ernest": 8445,
      "renov": 8446,
      "enthus": 8447,
      "arro": 8448,
      "isles": 8449,
      "ouse": 8450,
      "leaf": 8451,
      "chicks": 8452,
      "acids": 8453,
      "beats": 8454,
      "wider": 8455,
      "verte": 8456,
      "aggreg": 8457,
      "idol": 8458,
      "tracy": 8459,
      "triang": 8460,
      "mov": 8461,
      "ulating": 8462,
      "1923": 8463,
      "shim": 8464,
      "peoples": 8465,
      "loch": 8466,
      "afts": 8467,
      "ardine": 8468,
      "quit": 8469,
      "earning": 8470,
      "brut": 8471,
      "worn": 8472,
      "crab": 8473,
      "marg": 8474,
      "keeper": 8475,
      "compre": 8476,
      "presby": 8477,
      "angered": 8478,
      "vii": 8479,
      "parody": 8480,
      "typho": 8481,
      "gosp": 8482,
      "enses": 8483,
      "produces": 8484,
      "myst": 8485,
      "surgery": 8486,
      "operates": 8487,
      "millenn": 8488,
      "signal": 8489,
      "14th": 8490,
      "litter": 8491,
      "harrison": 8492,
      "halo": 8493,
      "christine": 8494,
      "aski": 8495,
      "personally": 8496,
      "sentences": 8497,
      "kills": 8498,
      "rounds": 8499,
      "semif": 8500,
      "itarian": 8501,
      "benjamin": 8502,
      "asteroid": 8503,
      "shoulder": 8504,
      "lincol": 8505,
      "acycl": 8506,
      "animation": 8507,
      "vertical": 8508,
      "friendly": 8509,
      "parliamentary": 8510,
      "spacecraft": 8511,
      "fishing": 8512,
      "kilome": 8513,
      "coaching": 8514,
      "autumn": 8515,
      "racing": 8516,
      "observation": 8517,
      "pulaski": 8518,
      "birthday": 8519,
      "rhys": 8520,
      "rhyme": 8521,
      "molecular": 8522,
      "molecules": 8523,
      "gardner": 8524,
      "cougars": 8525,
      "legislat": 8526,
      "logic": 8527,
      "sculptures": 8528,
      "comparison": 8529,
      "collapsed": 8530,
      "nettles": 8531,
      "hawaiian": 8532,
      "descend": 8533,
      "accurate": 8534,
      "queensland": 8535,
      "propaganda": 8536,
      "elaborate": 8537,
      "sovereign": 8538,
      "fundamental": 8539,
      "dakota": 8540,
      "wrapped": 8541,
      "removal": 8542,
      "73": 8543,
      "cress": 8544,
      "feld": 8545,
      "iac": 8546,
      "ike": 8547,
      "ioc": 8548,
      "jason": 8549,
      "nig": 8550,
      "pom": 8551,
      "pace": 8552,
      "pages": 8553,
      "tes": 8554,
      "remove": 8555,
      "revised": 8556,
      "atropical": 8557,
      "orn": 8558,
      "asking": 8559,
      "ingres": 8560,
      "toler": 8561,
      "icial": 8562,
      "chord": 8563,
      "imetres": 8564,
      "conqu": 8565,
      "verac": 8566,
      "users": 8567,
      "usher": 8568,
      "iders": 8569,
      "apore": 8570,
      "neil": 8571,
      "allies": 8572,
      "shirt": 8573,
      "odies": 8574,
      "cooper": 8575,
      "upset": 8576,
      "guid": 8577,
      "scape": 8578,
      "prev": 8579,
      "1830": 8580,
      "dispat": 8581,
      "dispute": 8582,
      "maj": 8583,
      "maur": 8584,
      "singapore": 8585,
      "submitted": 8586,
      "fires": 8587,
      "starring": 8588,
      "easter": 8589,
      "disturb": 8590,
      "brew": 8591,
      "lesser": 8592,
      "asha": 8593,
      "weekend": 8594,
      "campbell": 8595,
      "penetr": 8596,
      "topped": 8597,
      "christopher": 8598,
      "woodhouse": 8599,
      "voices": 8600,
      "prix": 8601,
      "believing": 8602,
      "explain": 8603,
      "explos": 8604,
      "rocks": 8605,
      "facts": 8606,
      "bodyline": 8607,
      "youngest": 8608,
      "representation": 8609,
      "antiqu": 8610,
      "check": 8611,
      "threw": 8612,
      "compliment": 8613,
      "synago": 8614,
      "industries": 8615,
      "questions": 8616,
      "completing": 8617,
      "platinum": 8618,
      "columns": 8619,
      "bomb": 8620,
      "boundaries": 8621,
      "sisler": 8622,
      "contribution": 8623,
      "wildlife": 8624,
      "documented": 8625,
      "advancing": 8626,
      "drove": 8627,
      "extratropical": 8628,
      "korea": 8629,
      "collapse": 8630,
      "metropolit": 8631,
      "negotiations": 8632,
      "accomplish": 8633,
      "pseud": 8634,
      "shorter": 8635,
      "islamic": 8636,
      "doctrine": 8637,
      "sanskrit": 8638,
      "africaine": 8639,
      "sorraia": 8640,
      "lincoln": 8641,
      "cards": 8642,
      "cullen": 8643,
      "dney": 8644,
      "denden": 8645,
      "eve": 8646,
      "fers": 8647,
      "jaw": 8648,
      "jury": 8649,
      "jardine": 8650,
      "khan": 8651,
      "lion": 8652,
      "luc": 8653,
      "nave": 8654,
      "nels": 8655,
      "sample": 8656,
      "tape": 8657,
      "vas": 8658,
      "wol": 8659,
      "reforms": 8660,
      "enous": 8661,
      "arian": 8662,
      "root": 8663,
      "neves": 8664,
      "abbey": 8665,
      "alloc": 8666,
      "shift": 8667,
      "umps": 8668,
      "ounder": 8669,
      "illness": 8670,
      "exem": 8671,
      "export": 8672,
      "notice": 8673,
      "ipes": 8674,
      "spending": 8675,
      "corpus": 8676,
      "gra": 8677,
      "mars": 8678,
      "guar": 8679,
      "guerr": 8680,
      "canning": 8681,
      "inclusion": 8682,
      "airlines": 8683,
      "mainland": 8684,
      "carn": 8685,
      "myster": 8686,
      "backed": 8687,
      "genera": 8688,
      "invent": 8689,
      "smen": 8690,
      "merged": 8691,
      "naming": 8692,
      "couldn": 8693,
      "bread": 8694,
      "contrad": 8695,
      "ruz": 8696,
      "fortune": 8697,
      "controller": 8698,
      "universities": 8699,
      "volumes": 8700,
      "facility": 8701,
      "radical": 8702,
      "traded": 8703,
      "briggs": 8704,
      "bennett": 8705,
      "1907": 8706,
      "acceptable": 8707,
      "temporarily": 8708,
      "pike": 8709,
      "accum": 8710,
      "reduction": 8711,
      "discussion": 8712,
      "flowers": 8713,
      "snake": 8714,
      "objectives": 8715,
      "daughters": 8716,
      "zzi": 8717,
      "biddenden": 8718,
      "gentle": 8719,
      "reflected": 8720,
      "766th": 8721,
      "prepare": 8722,
      "familiar": 8723,
      "telugu": 8724,
      "honorary": 8725,
      "rotation": 8726,
      "shrine": 8727,
      "detected": 8728,
      "louisiana": 8729,
      "agriculture": 8730,
      "emphasis": 8731,
      "beauty": 8732,
      "exploration": 8733,
      "gravity": 8734,
      "amanita": 8735,
      "encountered": 8736,
      "battleships": 8737,
      "strategic": 8738,
      "suddenly": 8739,
      "aggressive": 8740,
      "hidden": 8741,
      "belgium": 8742,
      "degrom": 8743,
      "millennium": 8744,
      "cresswell": 8745,
      "veracruz": 8746,
      "06": 8747,
      "114": 8748,
      "360": 8749,
      "78": 8750,
      "gau": 8751,
      "iently": 8752,
      "kary": 8753,
      "mour": 8754,
      "mason": 8755,
      "ois": 8756,
      "rim": 8757,
      "sax": 8758,
      "sailed": 8759,
      "tai": 8760,
      "vy": 8761,
      "zanz": 8762,
      "thic": 8763,
      "iná": 8764,
      "inary": 8765,
      "inking": 8766,
      "incur": 8767,
      "inery": 8768,
      "thed": 8769,
      "themed": 8770,
      "enem": 8771,
      "stig": 8772,
      "sters": 8773,
      "stress": 8774,
      "oring": 8775,
      "arvn": 8776,
      "toy": 8777,
      "outr": 8778,
      "illegal": 8779,
      "accus": 8780,
      "deer": 8781,
      "unnamed": 8782,
      "oli": 8783,
      "confront": 8784,
      "1922": 8785,
      "utional": 8786,
      "clinton": 8787,
      "afford": 8788,
      "coven": 8789,
      "cosm": 8790,
      "ieth": 8791,
      "dershow": 8792,
      "upgraded": 8793,
      "bos": 8794,
      "herd": 8795,
      "grim": 8796,
      "marking": 8797,
      "sioux": 8798,
      "meters": 8799,
      "evident": 8800,
      "finale": 8801,
      "aceae": 8802,
      "templ": 8803,
      "tenance": 8804,
      "underwent": 8805,
      "sony": 8806,
      "westminster": 8807,
      "starter": 8808,
      "mills": 8809,
      "memories": 8810,
      "likewise": 8811,
      "roller": 8812,
      "ballad": 8813,
      "chrono": 8814,
      "decisions": 8815,
      "gged": 8816,
      "dioc": 8817,
      "advice": 8818,
      "construct": 8819,
      "ruth": 8820,
      "eventual": 8821,
      "sporting": 8822,
      "senator": 8823,
      "facil": 8824,
      "radar": 8825,
      "switzer": 8826,
      "charted": 8827,
      "petition": 8828,
      "authorized": 8829,
      "anticip": 8830,
      "choose": 8831,
      "panzer": 8832,
      "devast": 8833,
      "nominations": 8834,
      "commenting": 8835,
      "armies": 8836,
      "closing": 8837,
      "clothes": 8838,
      "approaches": 8839,
      "achievement": 8840,
      "bishops": 8841,
      "columbus": 8842,
      "pulled": 8843,
      "percentage": 8844,
      "aerod": 8845,
      "prisoners": 8846,
      "conflicts": 8847,
      "shares": 8848,
      "struggled": 8849,
      "princi": 8850,
      "argentine": 8851,
      "synthesis": 8852,
      "beliefs": 8853,
      "embarked": 8854,
      "pregnancy": 8855,
      "wishes": 8856,
      "appreci": 8857,
      "demolished": 8858,
      "neighborhood": 8859,
      "provincial": 8860,
      "leukemia": 8861,
      "sympto": 8862,
      "cabinet": 8863,
      "conversation": 8864,
      "administrative": 8865,
      "consolid": 8866,
      "horizon": 8867,
      "caesar": 8868,
      "pattycake": 8869,
      "consequently": 8870,
      "dudley": 8871,
      "osexual": 8872,
      "typhoon": 8873,
      "synagogue": 8874,
      "metropolitan": 8875,
      "nevesinje": 8876,
      "enemies": 8877,
      "dershowitz": 8878,
      "bab": 8879,
      "bian": 8880,
      "cof": 8881,
      "danger": 8882,
      "gay": 8883,
      "hence": 8884,
      "iary": 8885,
      "kō": 8886,
      "khur": 8887,
      "mask": 8888,
      "oj": 8889,
      "pak": 8890,
      "sings": 8891,
      "tent": 8892,
      "taw": 8893,
      "tany": 8894,
      "inher": 8895,
      "inos": 8896,
      "reper": 8897,
      "reform": 8898,
      "reactions": 8899,
      "recreation": 8900,
      "atum": 8901,
      "sted": 8902,
      "stern": 8903,
      "itim": 8904,
      "acou": 8905,
      "beings": 8906,
      "unlikely": 8907,
      "wik": 8908,
      "ternal": 8909,
      "conversion": 8910,
      "user": 8911,
      "otes": 8912,
      "neo": 8913,
      "alliance": 8914,
      "embr": 8915,
      "pohl": 8916,
      "estyle": 8917,
      "affil": 8918,
      "riages": 8919,
      "ongoing": 8920,
      "permission": 8921,
      "cooperation": 8922,
      "bris": 8923,
      "strange": 8924,
      "assy": 8925,
      "keith": 8926,
      "indones": 8927,
      "liz": 8928,
      "evalu": 8929,
      "preston": 8930,
      "offering": 8931,
      "intercept": 8932,
      "drivers": 8933,
      "aceous": 8934,
      "ferry": 8935,
      "tempo": 8936,
      "epic": 8937,
      "charlot": 8938,
      "mainstream": 8939,
      "carries": 8940,
      "anning": 8941,
      "retali": 8942,
      "subsid": 8943,
      "tony": 8944,
      "hoover": 8945,
      "rowed": 8946,
      "sultan": 8947,
      "developers": 8948,
      "legitim": 8949,
      "merely": 8950,
      "values": 8951,
      "harbor": 8952,
      "commands": 8953,
      "reviewed": 8954,
      "controls": 8955,
      "mcc": 8956,
      "mccart": 8957,
      "draws": 8958,
      "soldier": 8959,
      "22nd": 8960,
      "grandfather": 8961,
      "scribed": 8962,
      "significance": 8963,
      "connecting": 8964,
      "animated": 8965,
      "luck": 8966,
      "idaho": 8967,
      "investment": 8968,
      "teachers": 8969,
      "execution": 8970,
      "1861": 8971,
      "temperatures": 8972,
      "pilots": 8973,
      "punishment": 8974,
      "chronicle": 8975,
      "neutral": 8976,
      "philosoph": 8977,
      "sweden": 8978,
      "130th": 8979,
      "hydrogen": 8980,
      "tigers": 8981,
      "accompanying": 8982,
      "stabil": 8983,
      "isotop": 8984,
      "wwf": 8985,
      "interpreted": 8986,
      "mitchell": 8987,
      "wanderers": 8988,
      "vertebr": 8989,
      "switzerland": 8990,
      "charlotte": 8991,
      "350": 8992,
      "bic": 8993,
      "bend": 8994,
      "dw": 8995,
      "dover": 8996,
      "fasc": 8997,
      "gaining": 8998,
      "hatch": 8999,
      "jing": 9000,
      "jag": 9001,
      "nant": 9002,
      "pm": 9003,
      "sq": 9004,
      "taste": 9005,
      "uy": 9006,
      "yout": 9007,
      "thro": 9008,
      "infer": 9009,
      "inning": 9010,
      "onwards": 9011,
      "refin": 9012,
      "reject": 9013,
      "arn": 9014,
      "icians": 9015,
      "terri": 9016,
      "conv": 9017,
      "vertex": 9018,
      "trunk": 9019,
      "resid": 9020,
      "manip": 9021,
      "earnest": 9022,
      "uprising": 9023,
      "duo": 9024,
      "corbet": 9025,
      "gras": 9026,
      "timber": 9027,
      "metric": 9028,
      "comprom": 9029,
      "compens": 9030,
      "offshore": 9031,
      "intermedi": 9032,
      "flesh": 9033,
      "parach": 9034,
      "minis": 9035,
      "everton": 9036,
      "tenure": 9037,
      "symph": 9038,
      "files": 9039,
      "dore": 9040,
      "retail": 9041,
      "toniná": 9042,
      "belgian": 9043,
      "aza": 9044,
      "lifetime": 9045,
      "helping": 9046,
      "lessing": 9047,
      "ashi": 9048,
      "delaware": 9049,
      "hara": 9050,
      "restore": 9051,
      "christians": 9052,
      "handed": 9053,
      "farming": 9054,
      "imeter": 9055,
      "arkansas": 9056,
      "salv": 9057,
      "functions": 9058,
      "gaelic": 9059,
      "frey": 9060,
      "travelled": 9061,
      "madero": 9062,
      "machinery": 9063,
      "armoured": 9064,
      "archaeologists": 9065,
      "ranks": 9066,
      "measuring": 9067,
      "pairs": 9068,
      "traveling": 9069,
      "airports": 9070,
      "isesi": 9071,
      "taxonomy": 9072,
      "aerial": 9073,
      "bourne": 9074,
      "policies": 9075,
      "gardens": 9076,
      "rushing": 9077,
      "trails": 9078,
      "patterns": 9079,
      "preparing": 9080,
      "duration": 9081,
      "pyram": 9082,
      "phenom": 9083,
      "leonard": 9084,
      "elevation": 9085,
      "decorated": 9086,
      "nazi": 9087,
      "bronze": 9088,
      "dubbed": 9089,
      "trapped": 9090,
      "precip": 9091,
      "alberta": 9092,
      "consult": 9093,
      "exactly": 9094,
      "census": 9095,
      "stuart": 9096,
      "knights": 9097,
      "nadal": 9098,
      "depicting": 9099,
      "blazer": 9100,
      "carpenter": 9101,
      "deputy": 9102,
      "conscious": 9103,
      "presbyter": 9104,
      "gospel": 9105,
      "mccartney": 9106,
      "youtube": 9107,
      "cum": 9108,
      "cke": 9109,
      "dad": 9110,
      "gur": 9111,
      "iot": 9112,
      "kate": 9113,
      "lt": 9114,
      "mold": 9115,
      "pc": 9116,
      "pam": 9117,
      "raw": 9118,
      "tissue": 9119,
      "taker": 9120,
      "xiii": 9121,
      "ʻi": 9122,
      "inus": 9123,
      "thet": 9124,
      "thew": 9125,
      "onna": 9126,
      "stakes": 9127,
      "lect": 9128,
      "seattle": 9129,
      "aming": 9130,
      "adri": 9131,
      "terrain": 9132,
      "allosaurus": 9133,
      "isto": 9134,
      "utah": 9135,
      "cliff": 9136,
      "manor": 9137,
      "mantell": 9138,
      "endar": 9139,
      "spell": 9140,
      "graves": 9141,
      "disput": 9142,
      "disrupt": 9143,
      "colleg": 9144,
      "interactions": 9145,
      "engagement": 9146,
      "athy": 9147,
      "sydney": 9148,
      "raising": 9149,
      "backs": 9150,
      "backing": 9151,
      "wellington": 9152,
      "obst": 9153,
      "operas": 9154,
      "operational": 9155,
      "succession": 9156,
      "transmission": 9157,
      "commanders": 9158,
      "characteristic": 9159,
      "morph": 9160,
      "aimed": 9161,
      "requires": 9162,
      "reaches": 9163,
      "heavier": 9164,
      "donated": 9165,
      "bills": 9166,
      "salmon": 9167,
      "bloom": 9168,
      "searching": 9169,
      "strongest": 9170,
      "pursuit": 9171,
      "declar": 9172,
      "capturing": 9173,
      "bowling": 9174,
      "1902": 9175,
      "electro": 9176,
      "turb": 9177,
      "sanct": 9178,
      "madonna": 9179,
      "survival": 9180,
      "1895": 9181,
      "pitching": 9182,
      "predict": 9183,
      "spoken": 9184,
      "maintaining": 9185,
      "joyful": 9186,
      "twentieth": 9187,
      "failing": 9188,
      "constitu": 9189,
      "indicates": 9190,
      "watson": 9191,
      "adelaide": 9192,
      "sacr": 9193,
      "thirteen": 9194,
      "candidates": 9195,
      "farmers": 9196,
      "concentrated": 9197,
      "recommend": 9198,
      "conventional": 9199,
      "partnership": 9200,
      "revenue": 9201,
      "segment": 9202,
      "geography": 9203,
      "dynamic": 9204,
      "vegetation": 9205,
      "crusaders": 9206,
      "positively": 9207,
      "baptist": 9208,
      "manuscripts": 9209,
      "recurring": 9210,
      "derffl": 9211,
      "membrane": 9212,
      "oxygen": 9213,
      "cousin": 9214,
      "cancelled": 9215,
      "mathemat": 9216,
      "stavanger": 9217,
      "acyclic": 9218,
      "03": 9219,
      "aus": 9220,
      "aqu": 9221,
      "hpa": 9222,
      "ien": 9223,
      "ibute": 9224,
      "jav": 9225,
      "kw": 9226,
      "kody": 9227,
      "m3": 9228,
      "mere": 9229,
      "mong": 9230,
      "rice": 9231,
      "rains": 9232,
      "sau": 9233,
      "sank": 9234,
      "vish": 9235,
      "wore": 9236,
      "waves": 9237,
      "yers": 9238,
      "yang": 9239,
      "instru": 9240,
      "ensem": 9241,
      "stale": 9242,
      "org": 9243,
      "orm": 9244,
      "alive": 9245,
      "ashore": 9246,
      "touring": 9247,
      "toky": 9248,
      "leeds": 9249,
      "ching": 9250,
      "seats": 9251,
      "ila": 9252,
      "beating": 9253,
      "unclear": 9254,
      "whate": 9255,
      "hears": 9256,
      "hearing": 9257,
      "compositions": 9258,
      "abroad": 9259,
      "arena": 9260,
      "resur": 9261,
      "poets": 9262,
      "rial": 9263,
      "ighters": 9264,
      "berlin": 9265,
      "coy": 9266,
      "redes": 9267,
      "boards": 9268,
      "spar": 9269,
      "serbs": 9270,
      "guides": 9271,
      "compilation": 9272,
      "attitude": 9273,
      "cancel": 9274,
      "dru": 9275,
      "monster": 9276,
      "monkey": 9277,
      "icken": 9278,
      "syā": 9279,
      "daydream": 9280,
      "buff": 9281,
      "singers": 9282,
      "ilda": 9283,
      "alsa": 9284,
      "retro": 9285,
      "myself": 9286,
      "schild": 9287,
      "surprise": 9288,
      "fourteen": 9289,
      "downstream": 9290,
      "hnc": 9291,
      "successive": 9292,
      "harry": 9293,
      "morgan": 9294,
      "horror": 9295,
      "christi": 9296,
      "collections": 9297,
      "increases": 9298,
      "woods": 9299,
      "realistic": 9300,
      "grammar": 9301,
      "planets": 9302,
      "fewer": 9303,
      "stronger": 9304,
      "sitting": 9305,
      "motiv": 9306,
      "occurring": 9307,
      "mothers": 9308,
      "linear": 9309,
      "broadway": 9310,
      "civilians": 9311,
      "aboard": 9312,
      "lacking": 9313,
      "acceler": 9314,
      "thodon": 9315,
      "angelou": 9316,
      "habitats": 9317,
      "physics": 9318,
      "examination": 9319,
      "arrangements": 9320,
      "seriously": 9321,
      "hunter": 9322,
      "hungarian": 9323,
      "photographs": 9324,
      "withdrawn": 9325,
      "wyoming": 9326,
      "questioned": 9327,
      "solely": 9328,
      "wealthy": 9329,
      "fragment": 9330,
      "eccle": 9331,
      "evolved": 9332,
      "ownership": 9333,
      "wickets": 9334,
      "volunteers": 9335,
      "hawaiʻi": 9336,
      "sharp": 9337,
      "microscop": 9338,
      "witchcraft": 9339,
      "dinosaurs": 9340,
      "jeremy": 9341,
      "divorce": 9342,
      "fernandez": 9343,
      "brilliant": 9344,
      "concession": 9345,
      "triumph": 9346,
      "movies": 9347,
      "derfflinger": 9348,
      "whatever": 9349,
      "bis": 9350,
      "bold": 9351,
      "glan": 9352,
      "hr": 9353,
      "lined": 9354,
      "nf": 9355,
      "nice": 9356,
      "pounder": 9357,
      "wang": 9358,
      "thi": 9359,
      "inqu": 9360,
      "orship": 9361,
      "iscus": 9362,
      "itic": 9363,
      "accommo": 9364,
      "uration": 9365,
      "uncle": 9366,
      "oles": 9367,
      "impress": 9368,
      "usive": 9369,
      "plains": 9370,
      "trond": 9371,
      "trains": 9372,
      "abuse": 9373,
      "allmusic": 9374,
      "loved": 9375,
      "permitted": 9376,
      "coat": 9377,
      "butter": 9378,
      "stry": 9379,
      "spark": 9380,
      "nova": 9381,
      "pron": 9382,
      "guine": 9383,
      "guild": 9384,
      "mini": 9385,
      "forever": 9386,
      "maintenance": 9387,
      "maya": 9388,
      "capit": 9389,
      "polar": 9390,
      "coverage": 9391,
      "identify": 9392,
      "bedell": 9393,
      "cyrus": 9394,
      "aires": 9395,
      "depiction": 9396,
      "governments": 9397,
      "humor": 9398,
      "continuous": 9399,
      "cutting": 9400,
      "telegraph": 9401,
      "240": 9402,
      "holoc": 9403,
      "goods": 9404,
      "romania": 9405,
      "1903": 9406,
      "electrical": 9407,
      "honours": 9408,
      "verses": 9409,
      "breaks": 9410,
      "commerce": 9411,
      "faul": 9412,
      "1889": 9413,
      "arabs": 9414,
      "sora": 9415,
      "occasion": 9416,
      "participate": 9417,
      "marketing": 9418,
      "audition": 9419,
      "protesters": 9420,
      "worthy": 9421,
      "bradstreet": 9422,
      "votes": 9423,
      "reinforced": 9424,
      "targets": 9425,
      "revived": 9426,
      "opinions": 9427,
      "smoke": 9428,
      "jurchens": 9429,
      "pregnant": 9430,
      "pirates": 9431,
      "virtually": 9432,
      "puzzle": 9433,
      "puzzles": 9434,
      "patriarch": 9435,
      "relegated": 9436,
      "genesis": 9437,
      "hospitals": 9438,
      "extinct": 9439,
      "hampshire": 9440,
      "rothschild": 9441,
      "margaret": 9442,
      "mystery": 9443,
      "symptoms": 9444,
      "pakistan": 9445,
      "isotopes": 9446,
      "pyramid": 9447,
      "117": 9448,
      "230": 9449,
      "aig": 9450,
      "cence": 9451,
      "dil": 9452,
      "gel": 9453,
      "gom": 9454,
      "gig": 9455,
      "hil": 9456,
      "hod": 9457,
      "lü": 9458,
      "mv": 9459,
      "mits": 9460,
      "mlb": 9461,
      "ook": 9462,
      "puma": 9463,
      "rä": 9464,
      "sending": 9465,
      "tasked": 9466,
      "uters": 9467,
      "edited": 9468,
      "steven": 9469,
      "itted": 9470,
      "seized": 9471,
      "ading": 9472,
      "bei": 9473,
      "owing": 9474,
      "tern": 9475,
      "commod": 9476,
      "tees": 9477,
      "tristan": 9478,
      "moor": 9479,
[...]
